#version: 0.2 - BPE Merges for Netcradus LLM
i n
Ġ t
Ġ a
o n
e r
a t
Ġt h
r e
e n
o r
Ġ s
e d
in g
a l
e s
Ġ c
i on
Ġth e
a r
Ġ o
i t
i s
l e
Ġ in
Ġ p
i c
a n
Ġ m
Ġa n
Ġ b
Ġ d
Ġ f
r o
Ġ w
Ġo f
Ġan d
Ġt o
a s
c h
en t
e l
Ġ n
Ġ re
e t
c t
o m
at ion
u t
u s
Ġ e
Ġ h
Ġ l
i m
t h
r a
Ġ le
c e
l y
u n
Ġ A
Ġp ro
ar n
u r
Ġ is
o d
Ġle arn
v e
Ġb e
u l
i g
s t
i f
Ġd e
i l
Ġth at
it h
er s
Ġa s
Ġ (
Ġlearn ing
T h
Ġm a
Ġc om
Ġf or
Ġ g
o l
e m
Ġ P
Ġ us
o w
Ġs u
Ġc on
Ġe x
Ġ on
Ġa l
Ġn e
i al
i d
a b
Ġs t
Ġin t
a m
in e
Ġ I
Ġw h
a g
y th
Ġb y
Ġcom p
Ġ 2
Ġ Th
o t
or k
yth on
re s
Ġa re
Ġ v
Ġw ith
p p
o g
Ġ "
et w
e ct
ic al
e p
ĠA I
Ġ or
u m
o s
v er
Ġ2 0
is t
es s
ion s
i r
Ġm od
Ġ im
a y
m ent
o p
Ġd at
etw ork
if ic
p er
Ġ it
at e
Ġn etwork
i v
Ġc an
ch ine
ĠP ython
en ce
ation s
el l
Ġ C
Ġ un
f or
i ve
Ġ S
ra in
it y
q u
Ġdat a
m s
p e
t er
Ġne ur
Ġmod el
p l
Ġ r
er e
ro m
Ġ M
Ġma chine
ĠI n
ĠTh e
Ġs y
a c
i es
t s
u d
Ġf rom
Ġre s
Ġh a
b le
e ar
Ġ 1
Ġa r
Ġa pp
p le
Ġin c
re d
en er
ag e
for m
at ed
p ut
Ġc l
Ġ G
Ġneur al
ct ion
Ġus ed
ear ch
Ġt rain
an g
es t
it ion
g or
p t
as s
c ess
st em
f er
Ġde ep
Ġnetwork s
ig h
Ġ D
Ġ R
a in
d u
o us
Ġsu ch
i z
an d
Ġn ot
a d
ic h
Ġw as
et h
th er
o re
ig n
Ġsy stem
o c
v el
' s
a ch
k e
Ġha ve
Ġg ener
gor ith
g e
Ġre c
ul t
ab le
g ra
Ġwh ich
Ġal gorith
e ch
as ed
Ġcomp ut
r i
en s
Ġs pe
ic t
t ific
an s
ell ig
u g
Ġcon t
tific ial
or t
ar i
Ġ1 9
p res
l ed
Ġa d
ar d
un d
l ud
u re
Ġpro gra
Ġa t
Ġ en
an t
k s
Ġh um
Ġ F
s o
f f
Ġ B
Ġc h
Ġ20 2
a re
Ġ N
ang u
Ġp er
Ġt r
Ġm an
Ġl ay
Ġmodel s
Ġinc lud
il l
og n
ellig ence
or y
ic s
ac k
Ġ E
el y
Ġh as
Ġl angu
Ġcl ass
Ġ 3
Ġ H
en d
ar t
om e
Ġ k
Ġo ut
Ġpro ble
a ct
Ġf e
Ġ20 1
Ġex am
Ġint er
) .
at h
eth od
ug h
N N
Ġde c
vel op
Ġ L
an ce
Ġm ethod
Ġd is
Ġst at
at ive
Ġde velop
Ġres earch
Ġtrain ing
o st
Ġ T
on s
Ġs e
is ion
Ġbe en
Th e
y p
Ġ U
Ġa c
Ġpro cess
Ġhum an
n ow
es e
Ġim p
Ġapp ro
I n
d er
l ic
u al
Ġd es
Ġrec ogn
Ġprogra m
u res
Ġf un
Ġus e
l i
o ul
Ġ J
Ġthe ir
Ġp red
oul d
in d
or s
ar y
Ġp re
) ,
a p
b er
Ġo b
l ow
Ġo ther
Ġv ari
Ġar tificial
pres ent
s u
am e
j ect
o ut
y s
as t
Ġal so
c es
Ġin put
Ġe v
Ġint elligence
Ġsystem s
e ep
Ġs h
Ġw ere
el d
us t
Ġl ar
Ġt as
Ġth is
Ġre present
ol og
ag es
Ġk now
Ġpred ict
P ython
c i
c ed
Ġd if
Ġlangu age
e c
i eld
Ġs et
is ed
ent s
Ġma y
Ġcon s
Ġman y
i e
Ġth an
il ity
Ġit s
Ġalgorith ms
â Ģ
Ġa b
Ġm ore
Ġb i
Ġb ut
ical ly
ter n
ech n
" .
Ġa g
on g
Ġo per
Ġe m
im e
Ġg o
r it
Ġc al
Ġint o
Ġexam ple
t en
w are
Ġ W
or d
Ġst r
Ġper form
Ġt echn
at ing
at es
Ġd o
ation al
Ġas s
ĠTh is
Ġlar ge
u p
Ġbe c
Ġfe at
Ġrecogn ition
p h
u b
Ġthe y
ar ly
Ġan al
as es
ent ial
Ġtr ans
re n
Ġb o
Ġsu pp
Ġmethod s
e x
e en
Ġs o
Ġs ome
Ġp l
Ġm ult
od e
os s
0 0
i le
Ġ O
in t
Ġt yp
Ġs ign
ion al
is h
as e
igh t
Ġalgorith m
Ġlay ers
Ġout put
Ġfun ction
c ial
f t
v ed
Ġs ol
Ġn um
Ġl i
Ġcom m
id e
per v
Ġa ut
al u
Ġp h
Ġre l
Ġon e
a k
a v
Ġs im
Ġp art
ĠI t
ĠG o
ri b
e g
in es
Ġth ese
Ġac c
perv ised
a us
Ġo ver
Ġf ield
Ġpro du
Ġgener al
Ġproble ms
Ġtas ks
i ble
Ġa ct
at or
it s
le ct
Ġf ir
Ġde f
Ġsu b
etw een
Ġcal led
Ġ ro
er n
al s
Ġb etween
Ġre g
Ġus ing
Ġne w
Ġapp lic
Ġappro ach
o b
t ain
res s
ific ation
ple ment
Ġinc re
Ġdis c
A I
i qu
Ġin d
Ġp at
Ġe ff
Ġh igh
ce pt
Ġpro v
em at
Ġim plement
Ġun der
Ġinclud ing
Ġstat em
Ġfir st
e ver
i ent
p os
Ġt ime
re e
al l
ro ugh
Ġw e
Ġw ill
pl es
led ge
ath emat
Ġprogram m
Ġdif fer
b ased
d ition
i a
u ct
w ard
Ġc o
Ġm e
Ġre le
Ġh ow
id ent
o und
Ġm ost
Ġm athemat
Ġcomput er
Ġlay er
Ġproble m
. ,
l es
n ect
Ġc ode
ĠA l
st r
if i
ow er
Ġex per
form ation
Ġtrain ed
Ġspe ech
a ce
o k
p re
p ect
Ġ j
le x
Ġb ack
Ġw ork
ut ion
arn ing
ur ing
ul ar
if y
Ġwh ere
og le
Ġim age
Ġsupp ort
i re
Ġth en
Ġth rough
Ġo pt
it ies
Ġp r
ĠF or
NN s
Ġob ject
Ġtechn iqu
Ġfeat ures
Ġmult i
b ab
f ul
p ro
Ġs earch
Ġb ased
Ġv ers
ĠS t
Ġdec ision
Ġdes ign
a il
c y
w o
Ġ ident
Ġc ol
Ġw ould
Ġl og
ol d
Ġex pl
Ġal low
ment s
pres s
Ġinclud e
Ġimp ro
Ġknow ledge
âĢ ĵ
o ur
Ġ K
Ġ if
Ġ qu
er tain
Ġp ar
Ġd et
Ġof ten
ur ren
Ġex press
Ġresearch ers
Ġprogramm ing
i p
o ugh
v ers
Ġ ra
Ġt wo
Ġus es
Ġcon nect
Ġcomp il
ist ic
fer ence
Ġat t
Ġclass ification
Ġpat tern
v ol
x im
Ġs p
Ġm at
om m
Ġon ly
Ġr is
iz e
Ġdevelop ed
Ġab out
Ġapplic ations
Ġopt im
P y
c al
u e
v ing
v ir
Ġt ra
Ġa m
Ġthe ory
Ġp ub
Ġp oss
Ġre qu
Ġe ach
ĠA n
ul es
Ġfor m
Ġg ra
Ġwh en
Ġneur ons
Ġha d
ĠD eep
iz ation
Ġgener ative
Ġspe c
ĠU n
Ġprocess ing
Ġdes c
ĠGo ogle
a chine
e op
g an
l d
s e
s er
Ġ y
en ces
al ly
Ġc re
ro du
Ġw ell
as on
Ġl ab
Ġpro bab
ur al
Ġex t
Ġint rodu
os e
Ġ19 8
olog y
Ġperform ance
Ġstatem ent
urren t
vir on
b ot
c on
i red
l ish
o ver
t ing
Ġ up
Ġt er
Ġal l
iv en
iv ely
oc i
ath er
ys is
Ġtechniqu es
k ing
Ġth ere
it ect
is m
Ġm in
ch itect
el f
Ġre ason
Ġma ke
Ġsu c
Ġar chitect
Ġen viron
Ġse ver
Ġcons id
Ġnum ber
h av
i b
i an
m b
n ess
o y
p ort
Ġc ap
is e
Ġp ower
Ġb l
Ġb rain
ct ions
ol ic
Ġcon c
Ġcomp lex
Ġv alu
Ġim ages
Ġprogra ms
ex t
eop le
Ġsuc cess
Ġsever al
" ,
D eep
d ing
e w
f ic
p ag
r tificial
s p
in ce
Ġthe m
it e
Ġp eople
Ġd ist
Ġf act
Ġw ay
Ġn o
Ġe qu
im ens
Ġbe ing
ine ar
ĠTh ese
iz ed
Ġinter pre
ual ly
su pervised
aus e
Ġeff ect
Ġlog ic
P U
i ous
u le
or ld
ar k
it ed
it ive
Ġin f
Ġin formation
Ġp ot
Ġm ed
Ġb u
Ġb el
Ġn on
Ġh and
th e
Ġbe hav
Ġst ud
Ġint eg
Ġ19 9
ĠL e
Ġanal ysis
Ġdiffer ent
Ġmathemat ical
Ġdet ect
Ġreason ing
n ot
Ġs er
ar g
Ġf ound
ro w
Ġre du
Ġh ard
Ġpro pos
ol s
ĠP ro
ow ever
Ġwh ile
pl oy
Ġsy n
Ġlangu ages
Ġexam ples
Ġstat ist
Ġdevelop ment
Ġsh ow
Ġli ke
Ġmulti ple
Ġpot ential
l o
p en
t e
y pe
Ġ est
Ġc or
Ġin st
an n
Ġan y
Ġw rit
et s
Ġe arly
Ġr ather
igh ts
Ġcomput ing
ict ion
Ġpre v
Ġstr uct
ft ware
Ġprov id
dition al
cal e
lish ed
Ġbehav i
2 0
d e
d en
n e
o v
u c
y n
Ġt est
on e
Ġs c
Ġc ould
Ġc ertain
is ions
Ġre port
ist s
Ġdec isions
Ġappro xim
li ed
Ġoper ator
Ġbo th
pro pag
Ġintrodu ced
Ġenviron ment
Ġconsid er
Ġbu il
. "
a w
f ter
o un
r y
Ġs ame
Ġs ci
Ġc ent
ic ro
ch ines
Ġre al
et y
Ġe lect
Ġh e
Ġlearn ed
Ġma chines
Ġg iven
ab les
Ġwh at
Ġcomp an
Ġcont ain
olog ical
Ġgo al
Ġpart ic
Ġdisc over
Ġpattern s
Ġdesc rib
Ġhard ware
1 9
a ke
b r
o ther
o ff
Ġ V
Ġ âĢĵ
Ġt ype
ing s
Ġp o
ic ient
ra m
ra ct
ul ation
ul ts
Ġ20 0
op h
iv es
ĠIn t
Ġapp lied
oc k
Ġcomput ational
Ġad v
Ġfun ctions
Ġob ser
Ġtyp ically
Ġcomm on
Ġsim il
Ġapproach es
ress ion
omm end
Ġposs ible
imens ional
propag ation
g y
l u
t ed
Ġ ve
Ġ eth
in ed
on om
Ġs m
Ġs ur
an ces
Ġf ind
Ġis su
il os
ĠC h
Ġun its
Ġres ults
Ġar g
Ġen g
Ġ202 4
Ġknow n
Ġdif fic
Ġso ftware
Ġrel ated
Ġro bot
ifi ed
Ġident ify
Ġimpro ve
Ġspec ific
ilos oph
Ġdiffic ult
S T
a ir
c om
i x
m m
n al
Ġ =
in for
Ġa v
Ġa fter
at ors
Ġs it
is ation
le arning
Ġp op
ic es
Ġm em
Ġd om
Ġd iv
Ġw id
et ic
Ġle ad
Ġde p
Ġex ist
ific ant
pl ic
Ġ19 6
ĠH owever
li ke
Ġvari ous
Ġinput s
âĢ Ķ
Ġdo es
Ġsign ificant
Ġoutput s
Ġsol ve
cept ion
Ġback propagation
Ġconc ern
PU s
infor ce
f ore
h ip
n er
r ast
Ġ Y
Ġ ke
Ġa ch
ic e
ic k
an ts
Ġf in
Ġf oc
Ġto ols
ent ly
us s
Ġl ong
Ġle vel
ĠA m
il ities
Ġex ec
ab ility
Ġwh o
Ġres ult
and om
and ard
Ġhum ans
Ġch ang
Ġ202 0
Ġimp ort
Ġtas k
Ġpredict ions
Ġbec ause
Ġanal y
Ġtyp es
Ġaut om
Ġph ys
Ġreg ression
Ġdesign ed
Ġter m
Ġbel ie
Ġstud y
Ġdetect ion
ĠInt elligence
Ġsit u
inforce ment
Ġach ie
f it
r on
s s
s cale
at ure
Ġin v
ro l
Ġre f
im es
Ġcom b
Ġne g
iv ed
ĠC on
pe cial
ĠThe y
Ġar t
Ġvari ables
Ġev alu
Ġag ents
Ġass ign
Ġfeat ure
ph a
Ġpl ay
Ġrel ations
Ġrele ased
Ġpub lished
Ġlab el
ew ork
Ġdist rib
Ġinteg r
Ġpropos ed
Ġest im
Ġprev ious
ram ework
Ġsimil ar
E P
b ers
c ing
j or
o f
p on
r ic
r ans
t rain
u ro
Ġ er
Ġt arg
at er
Ġs ing
Ġs ent
Ġs ince
le ar
le ction
Ġp ers
Ġp os
Ġm is
Ġb et
Ġd uring
Ġd iction
Ġf ac
ro und
Ġw ord
Ġh id
Ġl o
Ġl im
th ough
Ġpro ject
ur ther
il istic
Ġsu pervised
Ġst ate
am es
Ġwith out
Ġsy mb
fer ences
Ġrec ommend
ĠU S
Ġev en
Ġrepresent ation
Ġab ility
Ġbi ological
Ġag ent
Ġsign al
Ġli br
Ġaut onom
Ġimplement ation
Ġvers ion
Ġvers ions
Ġris k
Ġarchitect ures
sp ired
Ġmed ical
Ġstatist ical
Ġcompan ies
Ġav ail
Ġfoc us
i ence
l ing
o th
o od
p ts
t y
Ġ es
on str
er y
er ing
re ad
Ġs om
Ġs ens
Ġthe ore
ar m
an y
Ġd ire
Ġf ol
el p
Ġre ce
ct or
ct ly
ut ions
ut ure
Ġh elp
ra cy
ĠA rtificial
ul ate
Ġma jor
Ġg en
Ġne ed
ist ory
iv ers
Ġr ules
Ġr ule
Ġspe ed
Ġspe cial
ellig ent
Ġcont in
ĠB y
Ġ202 3
ord ing
Ġass oci
Ġtrans form
Ġme as
Ġam ong
Ġinf lu
Ġwrit ten
Ġstruct ure
yn am
Ġsm all
Ġeng ine
Ġanaly z
Ġer r
Ġavail able
M achine
N et
R e
a x
a pt
b y
c c
g g
l ass
n ing
p ons
r an
s y
t ime
u ed
u ch
v ices
w h
w n
w ay
y le
in ation
at ory
Ġs em
al ity
Ġc urrent
Ġo pen
is s
is ing
Ġd i
Ġd ynam
as ing
as ter
Ġre t
im ent
Ġbe gan
ig in
Th ere
Ġus ers
Ġsu per
Ġst andard
am et
Ġv ide
Ġor igin
Ġdat as
ĠC Python
Ġr un
Ġr andom
ĠM achine
ĠG e
eth er
Ġad d
ĠN o
Ġprocess es
Ġvari able
Ġgo ver
Ġgo als
Ġbec ame
00 0
Ġph ilosoph
Ġact iv
Ġincre ase
Ġco un
Ġexpress ions
Ġconnect ed
Ġatt em
Ġpub lic
Ġrequ ire
ĠLe arning
20 1
ST M
air ness
Ġdiv ision
Ġneg ative
pecial ly
Ġsing le
Ġbet ter
Ġhid den
Ġes pecially
Ġfol low
A l
G o
M L
N e
P T
S t
i er
l ine
p ar
u racy
v al
v es
v ent
Ġ ent
Ġt ake
Ġa ble
Ġa ction
Ġth ose
Ġs elf
Ġc rit
ar ies
it ions
Ġm ust
Ġf uture
ch m
om put
Ġe as
Ġl inear
Ġpro per
od es
st and
Ġde m
Ġg ame
ĠP h
ĠP EP
Ġex pect
ab ly
Ġv ision
ver y
Ġcan not
Ġun c
Ġun supervised
Ġneur on
Ġcont ext
Ġ202 5
ĠE x
end ed
Ġ201 6
Ġinter nal
ĠT uring
Ġsh ould
Ġacc uracy
Ġprodu ct
Ġj ob
Ġallow s
Ġsp ace
Ġris ks
Ġoptim ization
Ġcre ated
Ġmin ing
Ġvalu e
Ġinterpre t
Ġcor re
uc lear
Ġreport ed
Ġpop ular
Ġke y
Ġinv est
Ġrelations hip
Ġautonom ous
Ġgover n
D E
b l
d imensional
l ation
l ess
l inear
o int
Ġ 9
Ġ ed
Ġ et
in ci
Ġt ree
Ġt ext
at ic
at ely
en e
or m
Ġs a
Ġc ases
ar ch
Ġo wn
it er
Ġin spired
Ġp ass
Ġm ind
Ġd r
Ġf ramework
Ġf airness
ro up
Ġw orld
Ġre ad
Ġre ference
us ion
Ġl ed
Ġl ow
Ġl aw
ur ce
ul arly
Ġma de
ial s
Ġst ep
Ġor der
ay er
ay es
ell ed
pl ay
ac y
Ġres pons
ear s
ĠR NN
du ct
iz ing
ri pt
Ġcont rast
Ġcont rol
Ġ19 7
Ġad dition
und ing
ill ion
Ġ201 5
Ġimp act
Ġrepresent ed
Ġrepresent ations
ci ous
ie w
Ġbi as
Ġtechn ology
Ġass um
Ġcomm un
ak ing
Ġprodu ce
Ġhigh er
Ġimplement ations
Ġstatem ents
Ġme an
ĠAl pha
Ġj ust
Ġwork s
Ġobject s
Ġpar amet
Ġexpress ion
Ġam oun
ĠUn ited
Ġprobab ility
Ġ198 0
Ġarchitect ure
Ġcap able
Ġvalu es
Ġ199 0
Ġbehavi or
Ġconsider ed
Ġsci ence
Ġeth ical
Ġ= =
Ġdom ain
Ġdep end
Ġphys ical
Ġbelie f
Ġtarg et
A rtificial
C on
b o
b ed
b it
g es
h old
i res
t ical
t ax
u id
Ġ +
Ġ 4
Ġ 8
Ġ el
in c
Ġt re
at a
at s
at ural
Ġth ough
en cy
al th
Ġc y
Ġc ogn
Ġc ost
is ual
le vel
Ġin vol
Ġp res
Ġb as
Ġf ul
Ġf il
Ġf ail
Ġn odes
Ġn uclear
Ġre inforcement
Ġl oc
im in
th ers
ĠA s
ĠP y
Ġcon f
Ġcon st
Ġst art
Ġwith in
Ġit er
Ġun t
Ġun ivers
pe c
ter m
ĠM icro
ĠR e
Ġgener ate
Ġcomput ation
Ġcont ent
so ft
ff icient
Ġch o
Ġ202 2
Ġtr ue
ĠE n
Ġclass ifi
Ġk ind
Ġfe ed
Ġ201 0
ĠL STM
ĠT rans
Ġuse ful
Ġbi ases
Ġoper ations
Ġem ploy
Ġem bed
ĠW h
Ġbec om
Ġbec ome
Ġbo ok
Ġsol utions
Ġnum bers
Ġprodu ced
Ġpr inci
Ġqu est
Ġmat er
Ġgra ph
Ġy ears
Ġprobab ilistic
Ġsuccess ful
Ġfact or
Ġprovid es
Ġbuil t
Ġexec ut
fit ting
Ġpers on
Ġdiction ary
ayes ian
" )
. .
/ /
5 0
A n
A s
M E
O ther
a z
a per
d ient
l ab
l ob
m age
m ber
o le
o ch
p or
r al
s k
Ġ -
Ġ 7
Ġ X
in form
Ġa round
re y
re am
es ts
es earch
Ġc ate
ar ial
ar tificial
ar act
Ġo thers
it ations
Ġp olic
Ġan other
Ġb re
Ġd el
Ġf lo
Ġf urther
ro ss
Ġw in
ent ation
Ġn ame
et imes
Ġh yp
Ġl ess
Ġl ate
Ġle ast
ly ing
ĠA lex
Ġbe fore
ith er
Ġg roup
ow n
ab ilities
Ġcomp on
Ġcomp et
Ġdat ab
iv acy
ĠC A
qu ence
ri e
ens e
ĠN e
Ġper cept
Ġ201 2
Ġ201 7
Ġdevelop ers
Ġpredict ion
Ġnum er
Ġaut h
ak es
Ġact ions
Ġapplic ation
Ġincre asing
Ġunder stand
Ġhow ever
Ġmathemat ics
Ġcol lect
Ġexpl ain
Ġimpro ved
vers arial
Ġcompil er
Ġbl ock
Ġcomplex ity
Ġinterpre ter
Ġcent ers
Ġpartic ularly
Ġdiscover y
Ġve ctor
Ġissu es
Ġmem ory
Ġwid ely
Ġimport ant
Ġref ers
Ġlibr ary
Ġsem ant
Ġdynam ic
Ġattem pt
Ġunc ertain
Ġunt il
Ġcate gor
Ġhyp oth
) ;
B N
E x
M ind
V M
e b
f ield
h ance
k es
s ing
u ly
w orld
x t
Ġ '
Ġ 5
Ġ ut
in formation
er m
er cial
Ġth us
Ġth ree
or ts
Ġs oci
es is
it ial
is es
Ġm ight
Ġm ark
Ġb est
Ġd own
Ġf it
ut ed
ut ional
Ġh is
Ġh arm
Ġh istory
Ġl ack
Ġl iter
ĠA pp
ĠA NN
Ġpro m
od y
od ing
Ġde ploy
Ġma in
Ġma king
Ġma kes
id ual
ĠI S
ĠI f
Ġwh ether
ĠTh ere
Ġv ir
ep end
ir d
Ġmod ules
for ms
ĠS h
Ġmodel ing
Ġr ight
ĠIn d
Ġres pect
ener gy
ĠR oss
oc ial
oc um
ri x
Ġen d
ĠF ace
ĠB ayesian
Ġch aract
Ġ202 6
Ġman ip
Ġinclud es
ĠH int
Ġinter est
ap s
su ch
Ġlar g
tern ational
Ġstr ate
Ġsupp orts
Ġacc ording
Ġover fitting
Ġdef in
Ġsub s
Ġind ust
Ġeff icient
Ġprov ide
Ġimplement ed
Ġwe ights
Ġrele ases
Ġexper ience
ify ing
Ġpr ivacy
Ġcol lection
Ġallow ing
Ġra re
Ġcompil es
Ġtra ditional
Ġposs ib
Ġgra dient
ĠDeep Mind
Ġext ens
con om
Ġter ms
Ġeffect s
Ġsyn tax
Ġshow ed
Ġpotential ly
Ġhe alth
Ġpartic ular
Ġdescrib ed
Ġobser v
Ġsur ve
Ġarg ued
mm ar
Ġconcern s
Ġlevel s
Ġsitu ation
Ġdistrib ution
train ed
Ġsom etimes
Ġgen etic
Ġcontin u
Ġdi ag
Ġorigin al
ĠGe off
Ġdem onstr
Ġexpect ed
Ġrelationship s
Ġmean ing
Ġtre es
ĠMicro soft
ĠRoss um
ĠHint on
1 1
A S
c ur
e e
f old
g ing
g ress
h er
i ly
l ar
m aking
o u
p s
s pec
t ies
t ual
u ction
Ġ energy
Ġa im
at ch
at ible
at bot
at ively
Ġth ous
Ġth ird
Ġs am
Ġs ocial
Ġc ur
le y
Ġin itial
Ġp ur
ic it
Ġm on
Ġm et
Ġan n
Ġan t
Ġb ad
Ġd id
Ġd ocum
el er
Ġn atural
Ġre v
om al
ut e
Ġe le
Ġe ither
Ġl ist
ĠA r
Ġpro f
ur n
ul ated
Ġma xim
Ġg row
em ent
Ġus er
Ġcon ce
Ġon ce
Ġne uro
Ġv ia
Ġv isual
Ġor gan
Ġmod ern
Ġim plic
iv ity
ell s
ĠC NN
ĠC omput
for ward
qu ently
Ġr ang
Ġr ights
ĠM on
ĠM any
ac es
ac ks
Ġ1 0
ĠD NNs
ĠR ec
and s
ad em
ri or
ens or
are n
ĠE ach
Ġfe w
Ġ201 4
Ġ201 9
Ġinter act
Ġdis e
Ġstat es
Ġac adem
li er
ast ic
Ġset s
Ġcons cious
Ġag ain
Ġoper ating
Ġem ot
Ġpl ann
ĠO pen
Ġli k
Ġacc eler
Ġfield s
Ġdef ined
Ġdisc uss
all en
Ġdiffer ential
Ġme ans
Ġexper iment
Ġsupport ed
vol utional
Ġmat ch
Ġmat rix
Ġlab elled
Ġthere by
Ġredu ce
Ġstatist ics
Ġprovid ed
Ġbehavi our
Ġapproxim ate
Ġbuil d
Ġsci ent
Ġlead ing
Ġsitu ations
Ġassign ment
Ġestim ated
Ġsymb olic
read y
Ġtheore tical
Ġdire ctly
Ġengine ering
Ġerr or
Ġret urn
Ġvide o
Ġphilosoph y
Ġactiv ation
Ġproduct s
Ġimpact s
inc lud
Ġcogn itive
Ġloc al
ĠPy Py
Ġembed ding
Ġquest ion
lob al
ĠIS BN
Ġcharact er
Ġdiag n
ĠGeoff rey
6 0
7 8
A N
G PT
I T
P ro
S u
a im
a red
a ction
d is
e ad
f e
g th
g ener
h u
h ic
i o
k now
l ate
m it
m an
m ost
o ud
o ks
p ri
u red
v in
w rit
w ord
Ġ 0
Ġ ens
Ġ ide
in ts
er o
at ics
Ġth in
re c
re ed
en ced
or ies
Ġs ize
ing u
al low
Ġc ar
Ġc ase
Ġo cc
Ġin s
Ġin ference
Ġp ract
an ced
an cial
Ġm ent
Ġm illion
Ġb ro
Ġb ody
Ġd ed
Ġd ig
Ġd ue
Ġf re
Ġf aster
Ġof f
ch ed
ent ed
Ġn am
Ġre str
us ter
Ġe very
Ġe conom
Ġh ier
Ġl ater
im ate
ra ction
Ġle g
ve mber
Ġbe g
il it
Ġg ames
Ġex act
Ġal way
Ġal ready
Ġne ver
Ġne cess
Ġne xt
Ġst och
Ġint elligent
Ġcomp le
Ġv an
Ġv ery
um an
os en
Ġ20 00
ist ics
ir c
op y
iv idual
ĠC omm
ĠS im
Ġr ate
Ġr ates
ĠM od
ĠM ark
Ġar bit
Ġcl aim
Ġcl oud
fer red
ĠD if
ĠD NN
ĠD ata
ad ig
Ġrec urrent
Ġspe ak
Ġad ditional
Ġad apt
Ġen c
ff ect
Ġch atbot
Ġch allen
ĠN ew
Ġper ception
Ġclass es
Ġse e
Ġrecogn ize
Ġob tain
Ġsh ort
olog ies
Ġpredict ive
Ġcons um
Ġits elf
Ġstr ing
ential ly
Ġtrans lation
Ġsign als
Ġcomm ercial
Ġacc ur
Ġgeneral ly
Ġincre ment
Ġind ividual
ient ed
Ġwe ight
Ġrele ase
str uct
Ġexper ts
Ġtechniqu e
Ġexpl icit
Ġconnect ion
Ġconnect ions
Ġrequ ired
ĠAn other
Ġy et
Ġmin im
mb olic
Ġcap abilities
Ġredu ction
Ġsyn aps
Ġinst ances
Ġelect ric
19 9
Ġobser ved
Ġve hic
Ġ196 0
ĠAm az
ĠCon ference
Ġlabel s
Ġmis information
Ġlo ok
Ġlim itations
Ġproject s
Ġrecommend ations
Ġassoci ated
Ġanalyz ed
gg s
Ġdatas ets
ĠNo vember
Ne ural
Ġproper ties
Ġ9 78
orm al
Ġparamet ers
Ġamoun ts
Ġclassifi er
Ġkind s
sk y
Ġunderstand ing
Ġvir tual
epend ent
Ġrang e
Ġacadem ic
includ ing
Ġhier arch
Ġalway s
Ġstoch astic
Ġarbit r
Ġsynaps es
ĠAmaz on
+ +
D L
E E
G I
L P
R ec
b ack
c ome
c lass
c ript
f ety
h n
h ens
h uman
i k
i ver
l ayer
m ann
n om
o red
r ons
t z
t un
t ers
u es
u ation
v ant
w e
y stem
Ġ Z
in ning
Ġt u
Ġt imes
on d
er ed
at t
Ġth res
re g
re l
re hens
en c
en chm
or ation
or iented
Ġs w
Ġs ep
al id
Ġc are
Ġc aus
Ġc ross
Ġc opy
ar is
ar ks
Ġo pp
Ġp rior
ic i
ic ism
Ġm al
Ġm icro
Ġm uch
Ġan not
Ġan omal
Ġb an
Ġb ene
Ġf ore
Ġf unding
Ġof fer
Ġto p
Ġto ward
el s
Ġre pl
Ġre ach
Ġre ward
Ġl a
Ġl at
Ġle ver
ly nom
Ġlearn s
st ant
if ically
Ġde vices
Ġg et
ol ution
ĠP l
ĠP er
Ġus ually
Ġsu gg
Ġsu fficient
Ġon line
Ġal ong
id ence
Ġst ren
Ġst yle
Ġwh ite
Ġcomp os
Ġcomp rehens
Ġare as
Ġv s
Ġv alid
ep h
Ġim m
iv ing
ĠC NNs
ĠS ome
ĠS chm
ĠM ach
ĠIn st
Ġha ving
Ġcl os
Ġcl uster
ĠG PUs
ĠR esearch
Ġgener ation
ech an
ict ed
ari ly
Ġ19 50
Ġad j
Ġad ding
Ġad versarial
ĠB rit
Ġ202 1
ill ions
Ġout com
ugh t
Ġse con
ĠJ uly
Ġpre c
Ġvari ety
Ġev ent
Ġsh allow
Ġcons ist
âĢ Ĳ
tern al
Ġcal c
Ġstr ong
Ġperform ing
Ġanal og
Ġtrans p
Ġso urce
ĠO ther
int elligence
Ġtyp ing
Ġsol ution
Ġsol ving
Ġpart ial
Ġact ors
Ġsub ject
Ġro und
Ġreg ular
Ġincre ased
Ġunder lying
Ġback ward
ĠSt ates
Ġident ified
Ġallow ed
our ces
Ġqu ant
Ġpar adig
Ġdet erm
vol ution
Ġsp ar
Ġtra c
Ġrequ ires
ĠAn d
Ġgra mmar
Ġcre ating
Ġbl ack
sp am
Ġequ al
Ġhand le
Ġser vices
Ġest ab
Ġinst ance
Ġtest ing
Ġapproxim ation
Ġcontain s
Ġpo ints
Ġpo lynom
Ġ200 9
imensional ity
Ġeth ics
Ġissu e
ĠCh in
ĠCh at
Ġrobot s
Ġdom in
Ġdep th
uss ell
Ġachie ve
Ġachie ved
Ġcomb ination
Ġplay ing
Ġintegr ated
train ing
uro pe
Ġpos itive
Ġmeas ure
Ġerr ors
iss ions
Ġdatas et
Ġcoun t
Ġfollow ing
Go ogle
vent ional
Ġjob s
Ġinvest ig
Ġgovern ment
Ġdr ug
Ġlaw s
duct ive
Ġcommun ity
Ġdomain s
bo ok
Ġthough t
Ġconst rain
Ġunivers al
Ġcho ose
Ġbecom es
Ġmater ials
inform atics
Ġpolic y
Ġcompon ent
Ġincreasing ly
Ġsoci ety
Ġmark et
Ġmanip ulation
Ġsubs et
Ġindust ry
spec ific
Ġthous ands
Ġmon th
Ġconce pts
Ġagain st
Ġplann ing
Ġlik ely
Ġexperiment al
Ġide a
Ġbro ad
Ġnam ed
Ġvehic les
Ġthres hold
Ġsep ar
stant ial
Ġstren gth
ĠSchm id
ĠBrit ish
Ġoutcom es
Ġsecon d
. )
1 3
8 0
A pp
C A
C un
F R
G ener
H owever
H istory
I M
L e
M M
P h
S ome
S ee
U n
a h
a ve
a pe
c le
d ed
e y
e am
f fer
h ib
l der
m a
o ber
p r
p ass
r ies
r ight
r imin
s ol
t o
u ff
u ary
w ork
z z
Ã ¼
Ġ \
in ing
Ġa ud
er ve
re at
or gan
ed er
Ġc ore
Ġc irc
ar row
it ute
Ġin her
Ġp ath
Ġp ast
Ġp ix
Ġp aper
Ġm o
Ġm ass
Ġm echan
Ġb ran
Ġb enchm
Ġd er
Ġd en
Ġd ra
Ġd est
Ġd one
Ġf ra
Ġf ive
Ġf als
Ġf our
Ġw atch
Ġof fic
as h
ent ion
Ġn ow
Ġn ature
Ġn ames
Ġre m
et rie
ut h
ut able
Ġe ar
Ġe ggs
Ġh old
Ġl ast
im ents
ra ft
ĠA t
Ġlearn er
ul ner
ul atory
st yle
Ġde v
il ayer
Ġg r
Ġg u
Ġg uid
ol lar
ol tz
em por
ow s
Ġsu ffer
Ġcon ver
Ġcon volutional
Ġex pon
Ġal though
am b
ĠI DE
ĠI mage
ag ing
ot ed
Ġare a
Ġv iew
Ġv ulner
pp ing
og ra
os ed
ver t
ess ional
ay s
ell ing
Ġun d
Ġun it
ĠS ince
ĠS ne
ĠS uch
ter ed
Ġr ational
ĠM ay
ac ed
Ġha pp
ition al
pt ion
cess ing
fer ent
ĠD e
ĠD em
ĠR etrie
ous e
ous ly
iz es
Ġgener ating
Ġgener ator
Ġrec onstr
Ġcomput ers
Ġad op
Ġad vert
so urce
Ġch ec
Ġtr y
Ġman ag
Ġ3 0
Ġfe el
Ġinter action
Ġdis ci
Ġse cur
yp ically
Ġac qu
Ġac cess
Ġhuman ity
ĠJ ap
ind ows
Ġpre ferences
Ġev ents
Ġpredict ing
Ġcons e
Ġbi o
Ġbi ased
Ġoper ate
Ġem er
Ġem ph
ĠW indows
Ġtechn ologies
Ġass ess
ren d
Ġpl ant
Ġmult ilayer
ĠO ne
int elligent
Ġfunction al
Ġfunction ality
Ġph ot
Ġact ive
Ġdef end
Ġsub stantial
ob ot
Ġind ic
Ġind ex
Ġind entation
pos e
all uc
Ġwe b
Ġrele vant
ĠAl l
Ġexper iments
Ġcol lab
Ġlog ical
Ġpar ts
vers e
Ġdesc ent
Ġup d
Ġup on
Ġenviron ments
Ġconsid ers
Ġfact s
Ġway s
Ġequ ation
Ġequ ations
Ġeffect ive
Ġnon linear
Ġ199 1
ĠLe Cun
Ġser ies
Ġredu cing
Ġstruct ures
Ġdescrib e
Ġdescrib es
Ġexist ing
Ġsignificant ly
Ġconcern ed
ĠY ann
Ġfin ancial
Ġlong er
Ġresult ing
Ġchang ed
Ġautom at
ron ic
Ġart ic
Ġevalu ation
Ġdistrib uted
Ġprevious ly
Ġlim ited
Ġlibr aries
Ġfocus es
Ġrece ives
Ġspecial ized
Ġmeas ures
Ġanalyz e
cc ording
sy mbolic
iss ion
Al though
Ġeas ily
ĠPEP s
ĠEx am
Ġcorre ctly
Ġkey word
Ġpass ed
Ġinvol ves
Ġbas ic
Ġful l
Ġful ly
Ġfil ter
Ġfeed forward
ĠWh ile
Ġbre ak
Ġdatab ase
ĠCA P
ĠNe ural
Ġpercept ron
Ġnumer ical
Ġauth or
Ġsemant ics
hance ment
Ġut il
ĠApp le
ĠFace book
Ġlarg er
Ġobserv ations
ĠMon ty
ĠOpen AI
hu ber
Ġocc ur
Ġrestr icted
Ġexact ly
ĠMark ov
Ġelectric ity
Ġhierarch y
Ġarbitr ary
urope an
Ġcount ries
Ġmonth s
ĠSchmid huber
Ġbran ch
ĠSne k
ĠRetrie ved
Ġdisci pl
Ġsecur ity
ĠJap an
Ġemph as
" ).
( )
. ).
1 0
3 0
5 6
A ME
C omput
E C
F e
I ST
I mage
L I
L ist
M od
O S
S cript
a ught
c C
c l
c er
c ist
c ons
c li
c raft
d id
d eep
d itions
f ined
f usion
g en
g ed
g ies
g reg
h ood
i ed
i od
i ents
k in
k en
l ers
l ight
m ed
m ises
n et
n ov
o hn
p ly
p ers
p ite
p oint
r ial
r uct
r gen
s w
s ci
s ide
s ian
t ec
t arg
u ble
u art
u zz
v alu
w ith
x ic
{ \
Ġ *
Ġ /
Ġ 6
Ġ <
in k
in s
in ction
in ary
Ġt ests
Ġt ensor
Ġt eam
Ġt rend
er ic
re m
re w
re present
en ari
or n
or der
or atory
Ġs end
Ġs low
Ġs ide
Ġs cale
al le
al ities
es pre
Ġc red
Ġc ult
Ġc oding
Ġc ells
Ġo lder
it es
it ch
is ition
Ġp ol
Ġp sy
Ġm or
Ġm ot
Ġan sw
Ġb ur
Ġd imens
Ġd imensionality
Ġf o
Ġf ar
Ġf ine
Ġf und
Ġf low
Ġf ast
Ġf ree
Ġf ix
ro p
ro ach
Ġw ater
Ġto o
Ġto ol
Ġto xic
Ġn ets
Ġre d
Ġre st
Ġre act
Ġre li
Ġre ferred
ct ober
om p
om s
us ing
Ġh op
Ġh und
Ġl oss
Ġl ower
im al
un e
un ction
un ched
ĠA d
Ġpro te
Ġpro gress
od on
ul ations
ul ating
ul ia
st ream
if e
if ies
if old
Ġfor ms
Ġg ain
Ġg lobal
em ber
em ents
Ġus age
Ġcon struct
Ġcon ditions
Ġex cept
Ġex ception
Ġal most
id ed
ab et
Ġst ill
Ġst ack
am ing
am ent
yth ing
Ġby tec
Ġcomp atible
Ġcomp ared
Ġcomp aris
Ġ2 2
res pon
Ġv er
Ġv ary
pp ed
pp ort
um Py
os is
os eph
ist or
ist ants
op en
per form
Ġit em
iv al
Ġcan did
Ġun less
Ġun lab
ĠS a
ĠS o
ĠS ystem
qu ences
pl ain
ĠM ed
ĠM ore
ĠM ult
ĠM ost
ĠM arch
ĠIn ternational
Ġres ources
Ġ1 8
Ġinc or
Ġinc om
Ġcl ock
ĠG PU
ĠG PT
ĠD ec
ĠR eg
ĠR FR
Ġnot ably
ad e
ad es
eth ing
gorith m
Ġrec ord
ari an
Ġ19 4
Ġen ab
ĠB o
ĠB ut
ĠB oltz
Ġch em
Ġch ess
angu age
Ġper iod
Ġtr ies
Ġinclud ed
ill ance
ĠE ner
Ġclass ified
ĠH e
ĠH u
end er
Ġk ern
Ġ201 8
Ġdec re
Ġdis ag
Ġdevelop ing
ĠT IM
ĠT AME
Ġse x
Ġse lect
Ġse lection
ĠU sing
now ledge
Ġimp oss
Ġappro pri
In ternational
lic ations
Ġrecogn ise
ĠJ av
ĠJ Ã¼
ĠJ ohn
ĠJ oseph
ind ing
Ġpre mises
Ġvari ants
Ġev ac
Ġev idence
Ġrepresent s
Ġab st
Ġag ree
Ġag reed
Ġag greg
Ġoper ators
Ġem issions
ĠW e
Ġdo uble
Ġass istants
Ġbo x
ĠO ctober
ish ing
Ġalgorithm ic
Ġaut o
Ġsim pl
Ġsim ple
aus sian
Ġprodu cing
Ġdef ine
Ġdef ines
Ġsub se
Ġreg ard
ob ile
Ġincre ases
Ġpat ients
Ġeff ici
Ġprov ing
ever al
Ġwe ap
ĠAl an
ĠAl so
Ġexper t
bab ilistic
ĠSt uart
Ġexpl an
our nal
Ġra ce
Ġra cist
Ġatt ack
Ġatt ention
Ġoptim isation
Ġform at
Ġspec ifically
Ġy ield
Ġext ract
Ġext ended
con nect
Ġpower ful
Ġeffect ively
Ġmed ia
Ġhand writ
Ġinteg er
Ġser ious
Ġshow n
Ġcor respon
Ġprev ent
Ġsc enari
Ġenvironment al
Ġcent ral
Ġelect r
Ġcompan y
Ġdiscover ed
Ġpo int
Ġadv ances
Ġadv anced
Ġsur pass
Ġarg ues
Ġdifficult y
Ġwid espre
Ġexist ential
Ġfin ite
ĠAm eric
Ġexec ution
Ġchang e
Ġautom ated
Ġachie ving
Ġassign s
Ġintegr ation
Ġsimilar ity
Ġsent ences
Ġpos ition
Ġdiction aries
Ġfac ial
Ġlo op
Ġsom ething
Ġrece ived
Ġneed s
Ġassoci ation
Ġtransform ers
Ġsmall er
wh at
Ġvide os
Ġadd ed
par se
Ġcrit icism
Ġeas y
Ġinterpret ation
Ġsa id
Ġsa fety
Ġframework s
play ing
Ġparamet er
Ġamoun t
uid o
Ġel imin
Ġbas is
Ġstart ed
ĠEn g
ĠWh en
Ġbecom ing
Ġprinci ples
Ġmater ial
Ġgraph ics
Ġsuccessful ly
.. .
ole c
Ġflo ating
Ġcompet itive
Ġdatab ases
Ġpercept rons
Ġauth ors
Ġsemant ic
Ġcategor ies
Ġhypoth es
Ġhypoth esis
Ġdeploy ed
Ġstrate gy
Ġstrate gies
Ġdefin ition
Ġpossib ly
Ġpossib ility
Ġsurve illance
Ġele ments
Ġprof essional
Ġmaxim ize
Ġgrow th
Ġneuro sci
Ġimplic it
aren cy
Ġdise ases
Ġconscious ness
Ġemot ion
Ġdiscuss ions
Ġreturn s
know n
Ġpract ical
Ġdig its
Ġfre quently
Ġleg al
Ġnecess ary
Ġcomple t
ĠMod ern
Ġspeak er
Ġadapt ive
Ġaccur ate
tun ed
rel ated
Ġcopy right
Ġannot ations
Ġanomal y
Ġsugg est
Ġadj ust
Ġevent ually
Ġdeterm ine
Ġestab lished
Ġpolynom ial
ĠChat GPT
Ġconstrain ts
Ġfals e
Ġhapp en
Ġadop ted
Ġadvert ising
Ġbio informatics
alluc in
ĠExam ples
Ġhund red
Ġprote in
Ġbytec ode
ĠBoltz mann
ĠEner gy
ĠTIM IT
ĠTAME R
Ġimposs ible
ĠJav a
ĠJÃ¼ rgen
Ġeffici ency
Ġwidespre ad
" :
" ),
' t
1 4
1 5
2 2
2 5
2 00
= {
A d
A GI
B i
C h
C Python
C NNs
C lass
D D
D NNs
F or
G PUs
G AN
H DL
M P
M any
N IST
O MP
P I
R esearch
S DE
T ub
Z A
b a
b or
b ar
c il
c are
c over
d ependent
e as
e fore
f li
f ound
f akes
g s
g ence
h e
h im
h op
h ere
h and
i ate
i ations
k us
k ers
l a
l er
l ies
m etic
o id
o ice
p al
p art
p ower
p atible
r ated
r ang
r uff
s een
s yn
t ect
t rol
u it
u el
u rom
u its
u kus
v en
v ig
v id
z ero
Ġ %
Ġ &
Ġ Q
Ġ [
Ġ ess
Ġ //
in ess
in spired
in sky
Ġt end
Ġa way
Ġa ffect
on y
on es
at en
at form
at forms
en etic
or th
or ill
or ph
or vig
Ġs k
Ġs ect
Ġs pect
Ġs cal
ed s
al ysis
Ġc le
Ġc ause
Ġc apt
Ġc ats
ion e
Ġthe ories
it ing
it ig
it arian
is p
is ms
Ġin ductive
Ġin nov
Ġp ict
Ġp ie
Ġp ick
Ġp ione
an uary
Ġm id
Ġm arks
Ġm obile
Ġb row
Ġb illion
Ġd ays
Ġf ile
Ġf all
Ġf iction
ro gra
Ġw on
Ġw ar
Ġw ors
Ġto ok
as ion
as ts
ch ived
ent ral
el i
el m
el ess
Ġn ormal
et a
et er
et ect
ct ors
Ġh ost
Ġh ouse
Ġh istor
Ġl in
th ere
th ma
ra y
ce ive
ĠA ct
ĠA NNs
ĠA ccording
Ġpro pag
ur ts
ur ons
ur istic
Ġbe at
ul ative
st ep
Ġde b
Ġde ception
ith metic
Ġas pect
Ġas thma
Ġ( "
Ġma p
Ġma int
Ġcom es
Ġfor ward
Ġg orill
em ble
em ploy
ĠP r
Ġcon vin
Ġcon ventional
Ġex p
Ġex ternal
Ġex hib
Ġal one
Ġal pha
Ġne arly
Ġst able
Ġint r
am p
ĠI B
Ġwh y
Ġwh ose
Ġ2 1
ot os
Ġv ast
Ġmod ule
Ġim it
op er
iv ari
Ġcan cer
ĠC odon
Ġun re
Ġun known
Ġun seen
Ġun employ
ĠS e
ĠS w
ĠS am
ĠS earch
ĠS VM
qu ent
pl ing
ĠM L
ĠM cC
ĠM NIST
ĠM insky
ĠM eta
ĠIn ter
ĠIn tern
ac ing
ud e
Ġ1 1
Ġ1 6
Ġ1 00
Ġar ray
Ġapp ly
ple te
ener al
Ġcl aus
ĠG lobal
ĠG AN
ĠG uido
ĠG eneral
ĠD o
ĠD es
ĠD is
ĠR es
ĠR NNs
ĠR osen
ĠR ussell
Ġnot ions
ach ing
Ġcomput ations
ri ed
ens ive
ug ust
Ġcont est
Ġcont rib
ari ous
Ġen able
Ġen ough
Ġen hance
ĠF e
ĠF ukus
ff ic
ĠB l
Ġch ain
Ġch ance
Ġch osen
Ġch amp
ĠN et
ĠN ations
ĠN umPy
ĠN vid
ĠN orvig
Ġtr ick
Ġtr uth
Ġman ner
Ġman ifold
ĠE U
ĠE uropean
ĠE LI
Ġclass ify
ĠH eb
ĠH orn
Ġout lier
Ġout perform
Ġfe as
Ġ201 1
Ġinter med
Ġdis play
Ġdevelop ments
ons ense
Ġse quence
yp es
Ġappro val
Ġdes ired
ĠJ ulia
ĠJ anuary
Ġpred ic
ap se
ber t
Ġev olution
ust ers
Ġpredict ed
ec ause
Ġbi ology
tern ative
Ġgo od
ĠW ar
ĠW orld
Ġstr ings
ph abet
Ġanal ys
Ġtrans l
Ġtrans fer
Ġbo om
Ġbo und
ex ts
Ġsol ved
Ġcomm onsense
Ġph one
Ġrel ative
Ġrel atively
ak en
av es
av id
Ġsim ulate
Ġover come
Ġgeneral isation
Ġact ually
Ġro unding
Ġreg ulation
Ġreg ulatory
ob ser
ress or
Ġdisc re
Ġpat ch
Ġhigh ly
Ġhigh light
Ġwe ather
Ġprogramm ed
Ġdiffer ence
Ġco urts
Ġmost ly
Ġj ud
Ġj oint
Ġopt ional
Ġpr im
Ġobject ives
Ġmulti plic
Ġsearch es
Ġident ification
Ġcol l
Ġexpl o
Ġpar alle
Ġexpress ed
Ġra w
Ġcompil ed
Ġcompil ers
Ġoptim al
Ġtra vel
ĠAn alysis
Ġform al
Ġspec ified
ĠUn ion
Ġdesc ript
Ġcre ate
Ġprobab ilities
Ġext rem
con trol
oci ation
Ġthere fore
Ġmin or
ib ility
Ġcap ac
Ġbrain s
Ġconc aten
Ġfact ors
Ġno vel
Ġequ ival
Ġbeing s
Ġinf rast
Ġmed ic
Ġbel ow
Ġbel ong
Ġinteg ers
Ġfound ed
ĠPro pos
lo ch
lo ad
Ġwrit ing
de fined
ov es
Ġapproxim ately
oun ced
Ġcent er
Ġelect ronic
Ġcontain ing
Ġdiscover ing
19 8
ĠV an
Ġ200 8
Ġadv ance
Ġcommon ly
Ġsimil arly
ommend ation
Ġfind s
Ġfind ing
Ġrobot ics
com patible
mm ing
Ġpop ulation
Ġmem bers
ĠY ou
Ġfin al
Ġwho le
Ġchang ing
Ġchang es
Ġautom ation
Ġphys ics
Ġterm ed
Ġbelie ve
ss ociation
Ġevalu ate
Ġplay er
Ġlabel ed
Ġestim ation
Ġtarg ets
Ġfac es
Ġfac ilit
Ġword s
Ġsymb ol
Ġsymb ols
Ġrecommend ation
Ġsens e
Ġsens ors
Ġtheore m
Ġinflu ence
Ġinflu ential
Ġinflu enced
Ġengine ers
Re inforcement
Re ferences
wh ere
Ġret rie
Ġsuper intelligence
Ġorigin ally
Ġadd ress
Ġattem pts
201 5
Ġfollow ed
St at
vent ion
Ġproper ty
ĠPh otos
Ġcorre ct
Ġgovern ments
bl ack
bl att
bl ah
Ġed ges
Ġread ing
Ġread ability
Ġrespons e
Ġassum e
ĠAlpha Go
Ġel se
Ġcy ber
Ġcy cle
Ġpres ented
Ġfil ters
Ġstart ing
Ġcho ices
Ġclassifi ers
Ġfeed back
ĠTrans late
Ġemploy ment
Ġprinci pal
Ġexecut es
ole an
inform ed
Ġdel iver
Ġflo or
Ġgroup s
Ġcompon ents
Ġcompet ition
Ġcollect ed
Ġuncertain ty
Ġcategor y
Ġut ility
Ġharm ful
Ġliter al
ĠApp roach
Ġdeploy ment
ĠInd ex
Ġrespect ively
Ġefficient ly
Ġrare ly
Ġobserv ation
Ġsurve y
Ġcontinu ous
Ġdemonstr ated
Ġann ounced
Ġant i
Ġdocum ent
Ġdocum entation
Ġrev iew
ĠAr chived
Ġimplic ations
ĠComput ational
Ġinteract ions
Ġdise ase
Ġscient ific
Ġscient ists
Ġdiagn osis
Su pervised
gener ated
mit ted
Ġthin king
ingu ish
Ġment al
Ġoff ers
Ġeconom ics
Ġbeg inning
ilit ary
ĠComm ission
ĠSim il
ĠDif ferent
ĠDif fusion
Ġchatbot s
Ġchallen ges
Ġobtain ing
Ġconsum ption
Ġincrement ed
Ġexplicit ly
Ġlook ing
Ġtu ple
enc od
Ġsw arm
Ġcaus ed
Ġmicro control
Ġbene fit
Ġfore c
Ġla unched
ĠPer l
Ġsufficient ly
Ġcomprehens ions
Ġimm utable
ĠMach in
ĠInst itute
Ġprec ision
Ġstrong ly
Ġanalog ous
Ġtransp arency
Ġparadig ms
Ġspar se
ĠAnd rew
ĠChin a
Ġdomin ant
Ġsepar ate
App lications
Gener ative
Le arning
Un supervised
sol ving
Ġcirc uits
Ġpath s
Ġpix els
Ġbenchm ark
Ġdest ro
Ġfra ud
Ġwatch ing
Ġoffic ial
Ġrem ain
Ġear lier
empor al
Ġexpon entially
ogra ph
Ġreconstr uction
Ġacqu isition
Ġconse quence
Ġcollab oration
Ġupd ates
Ġautomat ically
Ġartic le
Ġdiscipl ines
Fe ature
cli ps
craft ed
ruct ure
targ et
Ġcult ure
Ġpsy ch
Ġbur den
Ġcomparis on
Ġvary ing
ĠSystem s
plain able
Ġincom plete
gorithm ic
Ġkern el
Ġexplan ation
Ġscenari os
Ġelectr ical
ĠEng lish
olec ules
Ġneurosci ence
Ġcomplet ely
allucin ations
OMP AS
Tub e
fli x
him a
part y
Ġwors e
Ġhouse hold
Ġmaint ain
ivari ate
Ġunemploy ment
ĠIntern et
ĠRosen blatt
ĠFukus hima
ĠNvid ia
ĠELI ZA
ĠHeb b
Ġintermed iate
Ġparalle l
Ġequival ent
Ġinfrast ructure
Ġfacilit ate
Ġretrie val
Ġmicrocontrol lers
' re
3 2
5 8
7 0
A R
A T
A t
A NNs
A ssociation
B C
C L
D ata
E A
E T
E th
E arly
F in
F old
F urther
H ard
H ub
I D
I P
I t
I ME
J EE
K DD
L L
L STM
M ult
M ost
M icro
N o
N atural
O C
P er
R I
R NN
R eg
R ule
R ussell
R obot
S im
S VM
S everal
T echn
T rans
T ensor
W ith
Z ero
a i
a ut
a res
a ult
b i
b on
b age
b ound
c ies
c lic
c ape
c ollar
d le
d ay
d inary
e f
e ering
f rom
f act
g o
g et
g ment
g ood
g ether
h ik
i or
i ol
i os
i able
i pped
i hik
k a
k o
l og
l ict
l ast
m al
m od
m ach
m its
n ers
n um
o ve
p ur
p ig
p il
p ir
p ace
r or
r ong
r ules
s h
s ign
s elf
s ite
t al
t ic
t act
t ember
u ce
u plic
v ous
v ari
w in
w en
w ise
y ing
} }
Ġ _
Ġ i
Ġ x
Ġ â
Ġ ir
Ġ ult
Ġ ill
Ġ 60
Ġ ...
Ġ zero
in o
in y
in al
in ct
in ator
Ġt ag
Ġt ended
Ġt akes
Ġt aken
Ġa ver
on ics
er ry
er vous
Ġth ings
Ġth esis
Ġth reat
re en
re le
re ct
en ko
or ge
or row
Ġs lic
Ġs izes
ed y
ed ded
al ing
Ġc um
Ġc ust
Ġc lear
Ġc aught
ar th
ar ms
ar ge
ar ry
ar vin
ar bage
it al
it ts
it able
it ory
it ivity
it Hub
is k
is ory
is ually
Ġin verse
Ġp un
an cies
Ġm ist
Ġm yp
Ġm ix
Ġm illions
Ġm itig
Ġm olecules
Ġan ything
Ġb ar
Ġb us
Ġb ug
Ġb ase
Ġb illions
Ġb orrow
Ġd ens
Ġd ollar
Ġd uplic
Ġf l
Ġf am
Ġf ace
Ġf ash
ro id
ro te
Ġw ide
Ġw elf
Ġw ave
Ġw rong
Ġw rote
Ġto ken
Ġto gether
as k
el ed
Ġn a
Ġn erve
Ġn ervous
Ġre p
Ġre ly
Ġre ject
Ġre pro
Ġre volution
et al
et ary
om in
om ing
us ed
Ġe ight
Ġe clips
Ġh y
Ġh ence
Ġh arms
Ġl ine
Ġl and
Ġl ists
Ġl ock
Ġl az
Ġl ingu
im ov
im ination
th eless
ra b
ra c
ra d
Ġle t
Ġle ts
Ġle ft
ce mber
un ctions
un ihik
ĠA ward
ĠA ugust
ĠA BC
ĠA rab
Ġpro ved
Ġpro of
ur y
ur ations
ve ctor
ul loch
ig u
ig urations
st op
st ood
if t
if ted
Ġde g
Ġde aling
il d
il s
il ly
il ot
ith read
Ġma ps
Ġcom ment
Ġcom edy
Ġg ives
Ġg reat
Ġg ender
Ġg arbage
em i
ĠP art
ĠP ark
ĠP aper
ĠP eter
ĠP itts
Ġsu perv
Ġsu pers
Ġcon j
Ġcon cept
Ġcon vers
Ġcon ditional
Ġcon duct
Ġex c
Ġex ists
Ġal ign
Ġal tered
Ġal ternative
Ġal phabet
Ġne ar
Ġne igh
ab or
Ġst ated
Ġst ore
Ġst ream
Ġint ract
Ġint ended
ĠI m
ĠI ts
Ġwh ites
Ġcomp ens
Ġcomp ile
Ġcomp ressor
Ġ2 6
ĠTh at
ĠTh ink
ot ation
ot ypes
Ġv oice
Ġv iol
Ġv isually
ep tember
Ġor dinary
um p
os ely
ir ing
ir st
Ġmod elling
Ġim pl
Ġim aging
op field
op ilot
ell ow
ĠC ar
ĠC ol
ĠC urrent
ĠC oun
ĠC lass
ĠC omp
ĠC OMPAS
ĠC opilot
Ġun ex
Ġun like
ĠS ir
ĠS ci
ĠS pec
ĠS parse
ĠS eptember
rain ing
qu e
qu ality
pl o
pl aced
Ġr ig
ĠM or
ĠM an
ĠM ich
ĠM arvin
ĠThe ir
Ġsy m
ac ial
Ġres ol
Ġres pon
Ġar rang
Ġar ithmetic
form ance
Ġcl ick
Ġcl usters
ĠG T
ĠG r
ĠG iven
ĠG aussian
ĠG itHub
pt ions
Ġdeep fakes
ĠD an
ĠD uring
ĠD avid
ĠR un
ĠR ep
ĠR ub
ĠR obot
ain ting
du ction
iz en
iz ations
Ġnot ed
ign als
oc ks
Ġgener ated
Ġgener ates
Ġgener ators
Ġcomput e
ri end
Ġ19 56
Ġen h
Ġen ables
Ġen orm
ĠF ramework
ĠF urther
ĠF ran
ĠB i
ĠB en
ĠB ig
ĠB SDE
Ġch ances
are st
ĠN g
Ġper ceive
Ġtr ust
ack age
ĠE arly
Ġ3 2
Ġ3 00
ĠH opfield
Ġk ill
Ġout come
Ġinter f
Ġinter n
Ġinter connect
Ġdec ades
Ġdec entral
ĠL L
ĠL i
ĠL ab
ĠL aw
ĠL anguage
Ġdis placed
ĠT o
ĠT ur
ĠT PUs
ĠT ypically
ons cious
Ġse em
Ġse quences
Ġse gment
yp ed
ĠU K
Ġac ross
Ġimp rec
Ġrecogn izing
ĠJ ames
ĠJ une
Ġpre fer
su e
su pport
out put
ys ical
Ġsh ells
Ġrepresent ing
Ġrepresent ative
Ġknow s
ec ond
Ġset ting
Ġcons ists
ie f
Ġbi om
Ġoper ates
Ġem ail
Ġem ulate
Ġem pir
Ġcal l
Ġcal ling
ĠW ill
ĠW all
ĠW eb
ord ance
Ġperform ed
Ġdo ub
up s
Ġbo ard
Ġsupp ly
Ġso und
Ġpl an
Ġpl ace
Ġpl aces
Ġpl atforms
Ġmult ivariate
Ġmult ithread
Ġtyp ed
Ġtyp ical
Ġcomm and
Ġph ase
av ing
Ġsim ulated
Ġsim ply
ĠGo od
eg gs
Ġacc ordance
Ġprodu ction
Ġact ual
Ġdef e
Ġdef ense
Ġdef ault
Ġsub field
Ġdisc rimin
iqu e
Ġind ependent
Ġwe ak
dition ally
Ġco ver
Ġco ord
Ġmathemat ically
ĠAl though
ifi ers
ifi able
Ġexper i
pect ed
Ġwork ing
Ġwork ers
Ġwork load
ular ity
ular ization
Ġpr un
pro cessing
Ġvers at
ĠSt andard
Ġdesign ers
Ġcol or
Ġexpl ored
Ġexpl oratory
Ġimpro ves
ĠK nowledge
ĠK unihik
Ġqu ality
Ġqu otation
Ġra ise
Ġcompil ing
Ġcompil ation
Ġatt ach
vol ent
Ġsp am
Ġsp aces
Ġris e
cal led
Ġtra ffic
Ġgra du
ĠUn ivers
Ġy ou
Ġcre ation
Ġprobab ly
Ġintrodu ction
Ġ198 2
Ġ198 5
Ġ198 6
Ġ198 8
Ġ198 9
mb edded
Ġcap ability
Ġbl ocks
Ġdist inction
Ġdist inguish
Ġinterpre ted
Ġstud ies
Ġstud ied
Ġdifferent ly
Ġdetect ing
Ġfound ation
ĠPro cessing
ĠPro log
Ġcor out
Ġinst all
Ġinst ead
Ġbehavi ors
ne y
Ġsc ruff
Ġapproxim ator
Ġconsider ing
Ġbuil ding
Ġcent ury
Ġhe uristic
Ġ200 5
Ġ200 6
Ġadv ant
onom ous
Ġissu ed
Ġarg um
Ġarg ue
Ġrobot ic
ilosoph er
Ġdifficult ies
com b
com put
Ġav oid
Ġdiv ided
Ġwid th
Ġlead ers
Ġke ys
ĠAm ari
Ġautom atic
Ġref lect
Ġcomb ine
Ġcomb ined
Ġevalu ated
Ġevalu ates
Ġlabel ing
Ġintegr ate
Ġsent ence
Ġsent ience
Ġsent iment
Ġmis class
Ġrecommend ed
Ġautonom y
Ġfocus ing
Ġsens itive
Ġsens itivity
Ġdire ct
Ġdire ction
Ġrece ive
Ġhelp s
Ġmajor ity
Ġneed ed
Ġcontin ued
Ġtransform ations
Ġmeas ured
Re illy
wh ich
Ġcurrent ly
Ġopen ing
Ġrun ning
ĠGe orge
Ġactiv ity
Ġcoun ter
Ġpublic ations
Ġfollow s
Ġent ire
Ġcrit ical
Ġeas ier
Ġdem and
ĠPh D
Ġinvest ed
Ġet c
Ġstep s
play style
Ġrespons es
Ġ197 0
Ġ197 1
Ġassum ed
Ġassum ptions
Ġcommun ic
Ġcommun ities
Ġworks hop
Ġdepend ing
Ġdepend ent
Ġdepend enc
Ġbelief s
Ġcogn ition
Ġinvol ved
Ġpres erve
Ġfail ed
ĠAs imov
Ġconf lict
Ġconf igurations
Ġiter ation
Ġunivers ities
ĠRe inforcement
ĠEn hancement
Ġembed ded
Ġprinci ple
Ġgraph ical
Ġexecut able
Ġperson al
sk i
ĠX AI
Ġdel ay
Ġwin ter
Ġwin ning
ĠAlex Net
ĠCA A
ĠNe urons
Ġnumer ic
Ġattempt ing
Ex ternal
Ġsoci etal
Ġdown stream
Ġfit ting
Ġprom ot
Ġprom pts
ĠInd ust
Ġlarg est
Ġdefin itions
Ġsubs ets
Ġindust rial
Ġextens ion
Ġextens ive
Ġhealth care
Ġdemonstr ate
AS R
Ġaim s
Ġsam ple
Ġsam ples
Ġsam pling
Ġinitial ly
Ġpur pose
Ġmet a
Ġann ual
Ġneuro bi
ĠComput er
Ġacceler ate
Ġacceler ated
Ġdiscuss ed
Ġdiagn ost
dis playstyle
fe el
gener ating
pri etary
Ġens ure
Ġens emble
Ġcar bon
Ġded uce
Ġnecess arily
Ġvan ishing
ĠComm on
ĠSim on
Ġclaim ed
Ġenc oding
ffect ive
Ġchallen ging
Ġaccur ately
Ġconnection ist
199 8
Rec ent
we ight
Ġtu ples
Ġsw itch
Ġcross bar
Ġopp osed
Ġmal ware
Ġfore st
Ġoffer ing
Ġtop ic
Ġtoward s
Ġreach ed
Ġlat ter
Ġlever age
Ġcompos itional
Ġvalid ated
ĠMach ines
ĠInst ead
Ġclos ely
Ġcluster ing
Ġcalc ulate
Ġcalc ulated
Ġparadig m
Ġspar s
Ġtrac king
ĠAnd roid
ĠChin ese
Ġinvestig ate
pr int
Ġaud io
eder ated
Ġinher ently
Ġmo ved
Ġmechan ism
Ġder ived
Ġdra w
Ġdev iations
Ġgr id
Ġgu ess
ĠImage Net
Ġvulner abilities
Ġund es
ĠDe cember
Ġphot ograph
Ġdefend ants
Ġsubstantial ly
Ġkeyword s
Ġfilter ing
Ġauthor itarian
Ġemphas is
Comput ational
Mod el
cons id
uzz y
Ġtrend line
represent ed
order ed
Ġcred it
Ġmor al
Ġmot iv
Ġdimens ion
Ġfund ament
Ġfix ed
Ġhop e
Ġconstruct ed
Ġexcept ions
Ġitem s
Ġcandid ate
Ġunlab elled
ĠSo ft
ĠMed ia
Ġincor por
Ġenab ling
ĠBo olean
Ġsex ual
Ġappropri ate
Ġevac uation
Ġauto encod
Ġsimpl er
Ġsubse quent
Ġweap ons
Ġhandwrit ten
Ġcorrespon d
Ġsurpass ing
ĠAmeric ans
Ġhypothes ized
Ġprofessional s
Ġcopyright ed
Ġsuggest ed
ĠJava Script
cover y
found er
power ed
tect ion
urom orph
ĠQ wen
Ġsect or
Ġinnov ation
Ġpict ures
Ġpie ce
Ġpione er
Ġfall s
Ġhistor ical
Ġlin ks
Ġaspect s
ĠPr ize
ĠIB M
Ġimit ate
ĠSam uel
ĠMcC ulloch
Ġclaus es
ĠDes pite
ĠDis covery
Ġenhance ments
Ġchamp ion
ĠNet flix
Ġoutperform ed
Ġfeas ible
Ġdiscre te
Ġpatch es
Ġhighlight ed
Ġjud g
Ġmultiplic ation
Ġcapac ity
ĠPropos als
ĠYou Tube
ĠSimil arly
Ġforec asts
ĠMachin ery
Hard ware
pur pose
pig enetic
sign al
Ġcum ulative
Ġcust om
Ġmyp y
Ġbus iness
Ġborrow ed
Ġdens ity
Ġdollar s
Ġduplic ating
Ġfash ion
Ġwelf are
Ġeclips ed
ĠCoun cil
Ġrespon ding
ĠRub y
Ġenorm ous
Ġinterconnect ed
support ed
Ġmultithread ing
ĠKunihik o
ĠUnivers ity
Ġdependenc ies
uromorph ic
" ;
% .
' )
* *
+ ,
, "
1 2
1 6
1 8
2 000
3 3
3 5
4 6
5 9
7 3
9 0
= %
= =
A ut
A AI
A ccording
B ack
B ML
B ayesian
B efore
B ecause
C M
C S
C l
C an
C ython
C rit
D A
D P
D if
D NN
D ec
D uring
D ream
D imensionality
E O
E R
E n
E uropean
E mbedded
F D
F G
F rom
F ace
F ramework
F ormal
F inding
F ederated
G G
G T
G ra
G ame
G iven
G MM
G aussian
H F
H e
H id
H MM
I m
I LP
J ust
J up
K nowledge
L U
L im
L oc
L anguage
L HF
M o
M s
M ath
M ilitary
N R
O n
O ver
P A
P R
P ub
P ower
P EP
R es
R el
R andom
S e
S h
S o
S y
S earch
S ci
S elf
S ince
S pecial
S ources
S parse
S emi
T o
T PUs
T ypically
U C
V ery
V arious
W S
W h
] ,
a ur
a id
a pp
a fer
a ks
a ust
a ware
a uth
b e
b ra
b ations
b ell
b les
b ene
b igu
c o
c r
c ent
c ision
c ast
c rit
c ern
c les
c omm
c rimin
c OS
d a
d o
d r
d om
d den
d etect
e on
e es
e om
e qu
e ons
e lect
e aper
e ously
e valu
f i
f in
f ers
f ect
f und
f are
f its
f lu
f ix
f ric
f unction
f ellow
g er
g ent
g ate
g ates
g ue
g round
g io
g ender
h ang
h igh
h ard
h art
h elm
h allucinations
i ar
i ro
i et
i om
i ation
i ra
i oms
j o
k er
k ets
l us
l iv
l ator
l ash
l ife
m er
m ult
m ath
m achine
m ark
m issions
m ember
n d
n am
n ormal
n arrow
o x
o es
o ol
o ore
o vers
o ising
p i
p in
p us
p st
p am
p red
p ared
r d
r m
r ing
r as
r ist
r ug
r ase
r gan
r ises
s le
s im
s am
s ince
s econd
t ur
t ure
t ically
t ology
t ice
t rans
t xt
t yped
u ard
u ance
u asion
v ive
v able
v ak
v ious
v iew
v anced
w al
w an
w orth
y es
y ter
y HDL
y clic
z er
| |
Ġ $
Ġ .
Ġ :
Ġ >
Ġ @
Ġ {
Ġ id
Ġ ign
Ġ âĢĶ
Ĩ Ĵ
in i
in ate
in ter
in put
in der
in compatible
Ġt w
Ġt en
Ġt it
Ġt ro
Ġt un
Ġt ech
Ġt ens
Ġt ail
Ġt ax
Ġt aking
Ġt aught
Ġt exts
Ġt emporal
Ġa x
Ġa id
Ġa ge
Ġa ward
on ed
on al
on ar
on ic
on ent
on ath
on ia
er b
er t
er ia
er bert
at tern
at oes
re et
re iter
re ement
en n
en ing
en ry
en cing
or ing
or ates
or ator
Ġs us
Ġs il
Ġs ess
Ġs onar
ed ical
ing er
al e
al f
al ter
al gorithmic
es ign
Ġc r
Ġc at
Ġc it
Ġc ro
Ġc am
Ġc ell
Ġc ame
Ġc ry
ion ed
ion ism
ar ing
ar ity
ar able
ar ant
ar win
Ġo ur
Ġo vers
Ġo ld
Ġo mits
it i
it ative
it ize
it utions
it ude
is on
is ations
is ely
le arn
le ag
le ad
le ted
Ġin form
Ġin su
Ġin ferences
Ġin struct
Ġin hib
Ġin duction
Ġp ut
Ġp ig
Ġp ython
Ġp age
Ġp ens
Ġp ort
Ġp ack
Ġp ost
Ġp ress
Ġp ne
Ġp air
Ġp uzz
Ġp ainting
ic o
ic on
ic ol
ic ial
ic ated
ic row
ic acy
an o
an ad
an eously
Ġm ut
Ġm us
Ġm im
Ġm arg
Ġm aster
Ġm oves
Ġm ilitary
Ġm icrow
Ġan imal
Ġb ig
Ġb und
Ġb ind
Ġb read
Ġb atch
Ġb acks
Ġb inary
Ġb inding
Ġb rac
Ġd og
Ġd ict
Ġd ile
Ġd rop
Ġd ying
Ġf if
Ġf ell
Ġf lu
Ġf riend
Ġf uzzy
ro vers
Ġw or
Ġw om
Ġw arn
Ġw ear
Ġw ant
Ġw aves
Ġto ld
Ġto day
Ġto tal
as ons
ch em
ent ang
ent iation
el ley
el hart
Ġn ative
Ġn ode
Ġn arrow
Ġre n
Ġre in
Ġre ct
Ġre ve
Ġre pe
Ġre pos
Ġre ferences
Ġre verse
Ġre open
Ġre bound
et ing
et ch
et ies
et ime
ct uation
om ic
om pos
om Net
om atic
om sky
ut or
ut tered
ut onomous
us c
us e
us ts
Ġe ver
Ġe pigenetic
Ġe yes
Ġh om
Ġh im
Ġh ere
Ġh ors
Ġh eld
Ġh our
Ġh iring
Ġh alf
Ġl ie
Ġl ines
Ġl ives
Ġl amb
Ġl ife
im it
im od
im age
im ated
im als
im ited
th ing
th is
th ur
th rough
th esis
ra p
ra w
ra ce
ra ight
Ġle aves
ce eds
un supervised
un like
un obser
ĠA T
ĠA li
ĠA fter
ĠA pr
ĠA PI
ĠA fric
Ġpro tection
Ġpro ceeds
ur ity
ur ces
ur ger
ul o
ul er
ul ary
ul ators
ig an
st im
st ate
st ell
st art
if orm
Ġde ce
Ġde leted
il ss
il helm
il iar
ers on
Ġma x
Ġma il
Ġma cOS
Ġcom e
Ġcom ing
Ġcom ments
Ġfor b
Ġfor k
Ġfor ce
Ġg lob
Ġg aming
em ini
ĠP ren
ĠP ract
ĠP rior
ĠP ackage
Ġsu mm
Ġsu mmar
Ġsu itable
Ġsu dden
Ġcon form
Ġcon ven
Ġex its
Ġon es
Ġon tology
Ġal ge
Ġne oc
Ġne ither
id ation
id iv
id ge
id imensional
ab is
ab ulary
Ġst op
Ġst ere
Ġst ages
Ġst ake
Ġst ories
Ġst raight
Ġint u
am i
am ond
ĠI I
ĠI s
ĠI sing
ĠI DL
ĠI EA
ĠI vak
Ġwh om
ag ent
ag ement
Ġcomp are
Ġcomp act
Ġcomp ound
Ġcomp ose
Ġcomp ares
Ġcomp rises
Ġcomp arable
Ġ2 8
ĠTh us
ĠTh ree
ĠTh rough
ot ion
ot st
res ent
Ġv ag
pp er
og ic
Ġ" [
um b
um ulate
um mit
um ba
um onia
um elhart
os es
os ion
os hu
Ġ20 30
ist ical
ist rib
Ġmod ify
Ġmod ulo
Ġim ag
Ġim per
ment ed
op e
per par
iv ision
ell ent
ĠC y
ĠC ent
ĠC rit
ĠC lo
ĠC PUs
ĠC irc
ĠC EO
ĠC anad
Ġun int
Ġun pre
Ġun ne
Ġun off
Ġun rec
Ġun ique
Ġun supported
for d
for ced
ĠS u
ĠS y
ĠS er
ĠS pe
ĠS ear
ĠS ad
ĠS lic
ĠS ub
ĠS everal
ĠS RI
ĠS ignals
ĠS ummit
qu entially
Ġr an
Ġr uler
ere br
ĠM ethod
ĠM aster
ĠM LP
ĠM AT
ĠM oore
ĠIn c
ĠIn form
ĠIn formation
ĠThe ory
ud i
Ġres ign
Ġres idual
Ġres olution
Ġ1 2
Ġ1 3
Ġ1 000
Ġ1 25
Ġar ise
Ġapp e
Ġapp ear
form at
form al
ated ly
Ġcl imate
ĠG ra
ĠG ord
ĠG ran
ĠG roup
ĠG No
ĠG emini
Ġtrain s
Ġtrain er
ang er
est ing
est imated
gor ill
pt oms
ass abis
cess ary
ĠD ay
ĠD ys
ĠD ick
ĠD onal
ĠR ain
ĠR ule
ĠR iver
ĠR isk
ĠR umelhart
ous tic
iz er
iz ers
iz able
iz ens
and a
and oned
Ġnot es
ad versarial
ich i
Ġsystem atic
oc ate
oc abulary
ach er
Ġrec ent
Ġrec ently
Ġrec idiv
ult y
ult aneously
gra m
gra mming
Ġcomput ed
ri an
ict ions
ug g
ug ging
Ġcont ents
Ġcont raction
Ġcont exts
Ġcont rovers
ort ex
Ġad here
Ġad equ
ard y
und er
und ancies
lud e
Ġat omic
Ġen em
Ġen forced
ant i
ant ing
ant ic
ant ly
ĠF ield
ĠF ound
ĠF eder
ĠB ing
ĠB ish
ĠB eg
ĠB oth
ĠB efore
ĠB ecause
ĠB rad
Ġch ief
Ġch eaper
ĠN ow
ĠN etwork
ĠN ational
ĠN ob
ĠN ok
ĠN ature
ĠN uclear
ĠN JEE
ĠN ils
ĠN uance
Ġper forms
Ġper cent
Ġper tur
Ġtr uly
Ġman ual
Ġman ually
ogn ition
ack ing
ĠE l
ĠE m
ĠE lect
ĠE valu
ĠE ven
ĠE stim
Ġclass ic
Ġclass ifying
Ġclass ifies
Ġ3 5
Ġ3 7
ĠH ow
ĠH ere
ĠH igh
ĠH all
ĠH aw
ĠH och
ĠH aving
ĠH erbert
ĠH enry
ĠH assabis
end s
art ing
art ph
Ġout side
act ions
Ġ201 3
Ġinter val
Ġinter net
Ġdec oding
Ġdec imal
Ġdec ompos
velop ment
ĠL u
ĠL ong
ĠL isp
ĠL arry
Ġmethod ology
Ġdis par
Ġdis app
Ġdis entang
Ġstat ically
Ġdevelop s
Ġresearch ed
ĠT ech
ĠT echn
ĠT wo
ĠT ai
ĠT raining
Ġse en
Ġse quentially
The ory
ĠU pper
Ġac cept
Ġac yclic
Ġac oustic
Ġprocess ors
Ġimp osed
In ductive
lic a
Ġdes pite
Ġrecogn izers
li able
ĠJ eop
ĠJ oint
ĠJ IT
ĠJ ournal
ĠJ onath
Ġpred e
Ġpre training
Ġpre pared
ap y
ap ed
ap id
ap rogra
ap iro
ber g
Ġob liv
Ġvari ed
Ġvari ation
Ġvari ant
Ġvari eties
su b
out s
ys ics
ast ers
Ġev ol
Ġev asion
Ġsh are
Ġsh aring
ust r
Ġrepresent ational
olog ically
ced ented
ec urity
Ġset up
Ġab ove
Ġab andoned
tern atively
Ġag ing
Ġoper ational
Ġem plo
ĠW id
ĠW ork
ĠW ats
ĠW alter
ĠW ilhelm
Ġstr ict
Ġdo ing
ph ones
ub lished
Ġtrans ition
Ġtrans forms
Ġtrans action
Ġtrans mit
Ġbo otst
Ġso ft
Ġso urces
Ġpl us
Ġpl ans
Ġpl aus
Ġmult idimensional
ĠO n
ĠO s
ĠO ver
ĠO EC
ĠO rgan
Ġsign s
Ġcomm it
Ġph ones
Ġrel ies
Ġrel ational
ak er
av our
Ġsim ulation
Ġsim ulations
Ġsim ulating
Ġsim ultaneously
Ġpart ies
eg ative
Ġprodu ces
Ġgeneral ised
Ġgeneral ize
Ġgeneral ization
Ġfir m
Ġsub t
Ġsub mitted
Ġro le
Ġro ut
Ġro ot
Ġro ugh
Ġreg ions
Ġreg ulate
Ġnew ly
Ġapplic ants
Ġdisc ern
Ġdisc overs
iqu ity
Ġind epend
Ġeff icacy
cept rons
Ġprov en
Ġprov ably
Ġunder stood
pos ed
Ġprogramm ers
Ġdiffer ing
uct ing
uct ions
Ġco al
Ġco ined
Ġco vari
Ġme ant
Ġme eting
Ġlayer ed
Ġproblem atic
str uction
ifi er
ok en
pre t
pre cision
pect ive
Ġj ournal
Ġback ground
Ġwhere in
Ġsupport ing
Ġthrough out
Ġpr int
Ġpr one
Ġobject ive
ĠSt an
ĠSt able
ĠSt yle
ĠSt eph
ĠSt eering
ĠSt reet
ĠSt arting
Ġident ical
Ġcol leag
Ġexpl osion
Ġimpro ving
ĠK a
ĠK e
ĠK ur
ĠK ey
Ġqu ick
urren cy
ip s
vers ing
Ġra d
Ġra ised
Ġra ising
Ġconnect ivity
Ġatt rib
Ġmat ter
Ġoptim ise
Ġoptim izations
Py Py
Ġtra its
Ġtra versing
Ġam bigu
Ġrequ est
Ġform ed
ĠDeep Dream
ĠUn its
ĠUn supervised
ĠUn ix
ĠUn like
se e
se y
se quence
ser ve
Ġcre ates
Ġwell be
ason ing
Ġext ra
Ġext raction
Ġext inction
Ġintrodu ce
Ġ198 1
Ġ198 7
viron ment
con cept
lish ing
ism o
ib ilities
port ed
Ġbl ind
Ġbl acks
Ġconc urrent
Ġvalu able
Ġsuccess or
Ġsuccess es
Ġdist ill
Ġfact ory
Ġno ise
Ġno thing
Ġequ ipped
Ġinf ix
Ġhand led
Ġhand ling
Ġbehav es
Ġ199 5
Ġ199 8
ĠLe Net
Ġdifferent iable
Ġser ver
Ġser vers
Ġser ving
Ġfound er
Ġredu ces
Ġpropos al
Ġpropos itions
Ġpropos itional
ĠPro cess
ĠPro ject
ĠPro babilistic
ĠPro Pub
ĠPro gramming
Ġsyn tact
Ġdevelopment al
Ġshow ing
te acher
Ġcor pus
Ġinst itutions
Ġwrit e
Ġwrit able
Ġstruct ured
Ġprovid ing
20 22
ne ural
ne arest
Ġtest ed
one y
Ġsc ene
Ġsc ript
Ġsc reen
Ġsc ope
Ġconsider ation
Ġreal istic
Ġelect ro
Ġelect orates
Ġcontain ed
19 80
br uary
off end
ĠV er
ĠV ari
ĠV arious
ĠV GG
Ġpo or
Ġ200 3
ĠInt el
Ġcomputational ly
Ġadv ice
Ġobser ving
Ġcommon alities
Ġve ctors
Ġsm artph
Ġsur ro
Ġsur round
Ġsur vive
ĠCh omsky
Ġeng ines
Ġidentify ing
Ġimprove ment
Ġimprove ments
Ġspecific ity
ilosoph y
Ġpop ulations
Ġmem ories
Ġexist ed
Ġ196 2
Ġ196 5
Ġ196 6
Ġ196 7
Ġ196 9
Ġdoes n
Ġke ep
Ġfin ally
uss ed
Ġresult ed
Ġanaly tical
Ġbelie ved
ron t
Ġcomb at
Ġneg ation
ĠCon volutional
ĠCon vention
ĠCon stell
Ġplay ers
Ġintegr ates
Ġestim ate
Ġestim ates
ater ials
Ġsent ient
Ġpers uasion
Ġpers pective
Ġpos es
Ġmis lead
Ġbet a
Ġfac ulty
Ġhid ing
Ġlo oks
Ġlo osely
Ġlim its
though t
Ġfocus ed
Ġtheore tically
Ġrece iving
Ġhelp ed
Ġgen e
Ġspeed ups
Ġspecial ised
Ġcontin ually
Ġassoci ates
Ġtransform er
Ġinflu ences
Ġinflu encing
Ġengine ered
Re asoning
ran k
sy co
Ġdi amond
Ġdynam ics
Ġdynam ically
Ġsuper intelligent
Ġsuper ior
Ġsuper mark
amet er
Ġrun s
Ġrun time
Ġrandom ly
Ġrandom ized
Ġadd s
ĠNo am
Ġphilosoph er
Ġphilosoph ers
Ġphilosoph ical
Ġactiv ities
Ġcoun ting
Ġpublic ly
201 2
201 3
201 7
201 8
Al l
Ne uromorphic
St ar
St ate
par ts
val idation
vent ions
Ġent ity
Ġent ities
Ġent ered
Ġcrit ic
stand ing
ĠPh ilosopher
Ġunc onscious
ĠEx c
ĠEx per
Ġinterpret able
Ġcorre lation
Ġcorre late
Ġinvest ing
Ġinvest ment
Ġautonomous ly
Ġgovern ance
Ġsa fe
Ġown ers
Ġpass ing
Ġpass es
Ġdr iven
Ġdr iving
Ġrespons ible
Ġrespons ibility
Ġrespons ibilities
Ġcontrol s
Ġ197 4
Ġ197 9
Ġassum ption
Ġmean ings
ĠAlpha Fold
ĠAlpha Zero
Ġdepend s
Con ference
Con ditional
bo x
bo oks
Ġ4 0
Ġ8 00
Ġtre at
Ġcy cles
Ġinvol ve
Ġpres ence
Ġfail s
Ġconf usion
Ġconst it
Ġconst itute
Ġiter able
Ġiter ators
Ġiter atively
Ġunivers ally
ĠRe LU
ĠLSTM s
ĠTrans lator
Ġemploy ed
Ġemploy ing
Ġquest ions
Ġfactor isation
Ġexecut ing
An other
Ġ- ,
Ġ7 0
Ġ7 1
ĠX P
Ġpolic ing
Ġpolic ies
Ġdel imit
Ġwin ner
ĠAlex a
Ġcollect ively
Ġimportant ly
Ex plainable
Ġmark ed
Ġliter als
Ġliter ally
Ġliter ature
ĠSh un
ĠSh apiro
Ġmanip ulate
Ġinterest ing
Ġdefin ing
Ġextens ions
Ġextens ible
Ġcontinu es
Ġcontinu ously
gress ive
lar ation
ps os
Ġthous and
Ġcur ly
Ġcur ated
Ġcur ios
Ġpur sue
Ġmon it
Ġmet aprogra
Ġann ually
Ġant iquity
Ġrev ision
Ġrev ived
Ġele ment
ĠAr thur
Ġprof ound
Ġmaxim um
Ġorgan ized
ĠMon te
ĠRec ognition
Ġfew er
Ġinteract ing
Ġemot ions
Ġemot ional
Ġplann ed
Ġlik eli
Ġmatch ing
Ġbehaviour al
Ġbuild s
Ġcharacter istic
Pro babilistic
Pro prietary
Su pport
fe ature
io informatics
know ledge
writ ten
Ġens ures
Ġthin k
Ġcar s
Ġcar ried
Ġins ide
Ġins ights
Ġpract ice
Ġded icated
Ġded uctions
Ġdig it
Ġfre ely
Ġevery one
Ġeconom ists
Ġbeg un
Ġnever theless
Ġcomple te
Ġclaim s
Ġenc ode
ĠNew ell
Ġsee k
Ġobtain ed
Ġconsum ed
Ġincrement al
Ġincrement ally
Ġminim ize
Ġminim isation
199 0
Ġlook ed
Ġhierarch ical
Ġarbitr arily
EE E
Rec urrent
Rec ommendation
hn enko
human ism
we ights
ĠZ en
ĠZ hang
reg ularization
Ġcaus es
Ġcross es
Ġopp onent
Ġprior ity
Ġprior itize
ici ans
Ġmal e
Ġbene fits
Ġrepl ace
Ġrepl aced
Ġrepl acing
Ġlat ent
Ġlat est
Ġlever ages
Ġlever aging
Ġget ting
ĠPl atform
ĠPer ceptrons
Ġsugg ests
Ġcompos ition
Ġcomprehens ive
Ġimm une
Ġadj usts
Ġprec isely
Ġconsist ent
Ġtransp il
Ġsubject ivity
Ġregular isation
Ġtrac kers
Ġestab lishing
Ġpolynom ials
Ġdomin ate
Ġinvestig ators
Ġdrug s
Ġconstrain t
Ġmarket ing
Ġbroad er
Ġstrength s
CA P
Gener al
Ph ysical
ave c
Ġ\ {\
organ izing
Ġinher ent
Ġpix el
Ġmo ve
Ġmass ive
Ġmass ively
Ġbenchm arks
Ġder ives
Ġden oising
Ġdra wn
Ġfra ctions
Ġear lies
Ġhold s
Ġhold out
ĠAt ari
Ġdev ice
Ġgr anting
Ġgu arant
Ġguid ed
Ġguid el
Ġguid ance
empor ary
Ġsuffer ing
Ġconver ge
Ġexpon entiation
ĠIDE s
Ġvulner able
ogra ms
Ġund etect
Ġrational e
ĠDem is
ĠDem pst
Ġreconstr ucting
Ġchec k
Ġchec ks
Ġchec kers
Ġmanag er
Ġmanag ers
Ġmanag ement
Ġconse quences
Ġemer ging
Ġemer ged
Ġphot onics
Ġindic ate
Ġindic ating
Ġindic ators
Ġindex es
Ġweb site
ĠAll en
Ġcollab or
Ġupd ate
Ġbreak through
ĠCAP s
Ġutil izing
Ġbranch es
Ġdiscipl ine
Ġemphas izes
Comput ing
net ics
pers on
Ġ* *
Ġ6 1
Ġ< =
ins on
Ġteam s
Ġsend s
Ġpol l
Ġpol it
Ġmor ality
Ġansw ers
Ġansw ering
Ġdimens ions
Ġfo ol
rop y
Ġtoxic ology
Ġred undancies
Ġrest oration
Ġreact or
Ġreact ions
Ġreli able
Ġreli ably
Ġhop es
Ġprogress ively
Ġgain s
ament ally
Ġver ification
Ġver ifiable
Ġcandid ates
Ġunlab eled
ĠSa fety
ĠSa udi
ĠSo ftware
ĠMore over
ĠMult i
Ġincor rect
ĠReg ulatory
Ġrecord ed
Ġ194 3
Ġ194 9
Ġenab led
Ġchem ical
ĠHu ang
Ġdecre ases
Ġdecre ase
Ġdisag ree
Ġdisag reed
Ġappropri ately
Ġevac u
Ġabst ract
Ġabst raction
Ġaggreg ation
Ġaggreg ated
ĠWe i
ĠWe izen
Ġsimpl est
Ġsubse quently
Ġregard ed
Ġregard less
Ġweap on
Ġattack ers
Ġyield s
connect ionism
Ġhandwrit ing
Ġserious ly
Ġcorrespon ding
ĠAmeric an
Ġelimin ated
Ġhypothes es
Ġimplicit ly
Ġadjust ing
Ġadjust able
200 9
Ad versarial
Bi as
GAN s
Research ers
ba um
uit ka
Ġess ential
Ġess entially
Ġ// ,
Ġtend ency
ony m
Ġspect rogra
Ġscal ing
Ġcle an
Ġcle arly
Ġcapt uring
Ġbrow n
Ġbrow ser
Ġwar fare
Ġhost ing
Ġpropag anda
Ġdeb ates
Ġgorill a
Ġgorill as
Ġconvin ced
Ġconvin cing
Ġexp ensive
Ġexhib it
Ġintr usion
oper ation
Ġunre liable
ĠRes pons
Ġcontrib uted
ĠFe bruary
Ġtrick ed
Ġpredic ts
Ġevolution ary
ĠWar ren
Ġanalys e
Ġanalys es
Ġtransl ates
Ġbound s
Ġprim ary
Ġcoll apse
Ġexplo it
Ġdescript ion
Ġextrem e
Ġextrem ely
Ġminor ity
Ġconcaten ated
Ġmedic ine
Ġbelong s
Ġbelong ing
198 6
Ġadvance ments
Stat istics
Ġcyber netics
Ġdestro y
Ġremain der
Ġpsych ology
Ġmaintain ing
ĠHebb ian
Ġparallel ism
AR PA
Eth ics
Fin ancial
IP S
Micro soft
Per formance
Reg ression
Sim ple
SVM s
mal ware
mach ines
num ber
pil ers
Ġ_ {
Ġâ ĨĴ
Ġill usion
inator ial
Ġtag ging
Ġaver age
Ġslic e
arth y
Ġpun ctuation
Ġmix ture
Ġmitig ate
Ġfam iliar
Ġrep ublished
Ġreject ed
Ġrepro du
Ġhy perpar
Ġlaz y
Ġlet ters
ĠArab ia
Ġdeg ree
Ġgreat est
ĠPark inson
ĠPaper t
Ġsuperv isory
Ġsupers et
Ġconj unction
Ġconduct ed
Ġalign ment
Ġneigh bor
Ġstream s
Ġintract able
Ġcompens ate
Ġimpl ies
ĠCar lo
ĠCol ab
ĠComp any
Ġunex pected
ĠSir i
ĠSci ent
ĠSpec ific
Ġrig or
ĠMor avec
ĠMich igan
Ġsym ptoms
Ġresol ving
Ġclick work
ĠRep resent
Ġenh ances
ĠBen gio
Ġinterf aces
Ġintern ational
ĠLL VM
ĠLi ke
ĠLab oratory
ĠTur ismo
Ġsegment ation
Ġimprec ise
Ġprefer ably
Ġempir ical
Ġdoub ling
ĠGood fellow
Ġdefe ated
Ġdiscrimin ative
Ġcover ed
Ġcoord ination
Ġexperi enced
Ġprun ing
Ġversat ile
Ġattach ed
Ġgradu ates
Ġdistinguish ed
Ġcorout ines
Ġinstall er
Ġscruff ies
Ġadvant ages
Ġargum ents
comb inatorial
Ġdirect ed
Ġcounter parts
Ġdelay ed
ĠIndust rial
Ġneurobi ological
Ġdiagnost ics
Ġspars ely
Ġdraw s
Ġundes ired
Computational ism
consid ered
Ġmotiv ated
Ġfundament al
Ġincorpor ate
Ġautoencod er
Ġcorrespond s
Ġjudg ments
Ġcustom er
Crit icism
Dif ferent
Dec ision
En hancement
Hid den
Jup yter
Lim itations
Loc al
Mo jo
Sy mbolic
Sci Py
aware ness
auth or
crit ical
dr iving
detect ing
eom et
elect ronic
ira ble
mult i
math rm
pin ions
inter esting
Ġaward ed
Ġsus p
Ġsess ion
Ġcit izens
Ġcam er
Ġovers een
Ġinsu fficient
Ġpig eons
Ġpens ion
Ġpack ages
Ġpne umonia
Ġpair s
Ġpuzz les
Ġmim ics
Ġmarg in
Ġmicrow ork
Ġbind s
Ġbread th
Ġbacks lash
Ġbrac kets
Ġdile mm
Ġdrop out
Ġwom en
Ġreve al
Ġrepe atedly
Ġrepos itory
Ġhors es
Ġhour s
Ġlamb da
imod al
ĠApr il
ilss on
Ġglob ally
ĠPren tice
Ġsummar ized
Ġalge bra
Ġstere otypes
Ġstraight forward
ĠIDL E
ĠIvak hnenko
Ġcompound s
oshu a
istrib uted
ĠCrit ics
ĠClo ud
Ġunint ended
Ġunpre cedented
Ġunne cessary
Ġunoff icial
Ġunrec ogn
ĠSear le
ĠSad dle
ĠMethod s
ĠMAT H
ĠGord on
ĠGNo ME
ĠDonal d
Ġadequ ate
ĠFound ation
ĠBish op
ĠBeg inning
ĠNob el
ĠNok ia
Ġpertur bations
ĠElect ric
ĠHaw king
ĠHoch reiter
Ġdisapp oint
ĠTai wan
ĠJeop ardy
ĠJonath an
Ġemplo ys
ĠWats on
ĠOEC D
ĠOrgan ization
ĠSteph en
Ġcolleag ues
Ġquick ly
Ġwellbe ing
ĠProPub lica
Ġsmartph one
Ġsurround ing
ĠConstell ation
Ġmislead ing
Ġcurios ity
Ġmetaprogra mming
Ġlikeli hood
Ġearlies t
ĠDempst er
ĠWeizen baum
Ġhyperpar ameter
