{
  "<PAD>": 0,
  "<BOS>": 1,
  "<EOS>": 2,
  "<UNK>": 3,
  "<MASK>": 4,
  "!": 5,
  "\"": 6,
  "#": 7,
  "$": 8,
  "%": 9,
  "&": 10,
  "'": 11,
  "(": 12,
  ")": 13,
  "*": 14,
  "+": 15,
  ",": 16,
  "-": 17,
  ".": 18,
  "/": 19,
  "0": 20,
  "1": 21,
  "2": 22,
  "3": 23,
  "4": 24,
  "5": 25,
  "6": 26,
  "7": 27,
  "8": 28,
  "9": 29,
  ":": 30,
  ";": 31,
  "<": 32,
  "=": 33,
  ">": 34,
  "?": 35,
  "@": 36,
  "A": 37,
  "B": 38,
  "C": 39,
  "D": 40,
  "E": 41,
  "F": 42,
  "G": 43,
  "H": 44,
  "I": 45,
  "J": 46,
  "K": 47,
  "L": 48,
  "M": 49,
  "N": 50,
  "O": 51,
  "P": 52,
  "Q": 53,
  "R": 54,
  "S": 55,
  "T": 56,
  "U": 57,
  "V": 58,
  "W": 59,
  "X": 60,
  "Y": 61,
  "Z": 62,
  "[": 63,
  "\\": 64,
  "]": 65,
  "^": 66,
  "_": 67,
  "`": 68,
  "a": 69,
  "b": 70,
  "c": 71,
  "d": 72,
  "e": 73,
  "f": 74,
  "g": 75,
  "h": 76,
  "i": 77,
  "j": 78,
  "k": 79,
  "l": 80,
  "m": 81,
  "n": 82,
  "o": 83,
  "p": 84,
  "q": 85,
  "r": 86,
  "s": 87,
  "t": 88,
  "u": 89,
  "v": 90,
  "w": 91,
  "x": 92,
  "y": 93,
  "z": 94,
  "{": 95,
  "|": 96,
  "}": 97,
  "~": 98,
  "¡": 99,
  "¢": 100,
  "£": 101,
  "¤": 102,
  "¥": 103,
  "¦": 104,
  "§": 105,
  "¨": 106,
  "©": 107,
  "ª": 108,
  "«": 109,
  "¬": 110,
  "®": 111,
  "¯": 112,
  "°": 113,
  "±": 114,
  "²": 115,
  "³": 116,
  "´": 117,
  "µ": 118,
  "¶": 119,
  "·": 120,
  "¸": 121,
  "¹": 122,
  "º": 123,
  "»": 124,
  "¼": 125,
  "½": 126,
  "¾": 127,
  "¿": 128,
  "À": 129,
  "Á": 130,
  "Â": 131,
  "Ã": 132,
  "Ä": 133,
  "Å": 134,
  "Æ": 135,
  "Ç": 136,
  "È": 137,
  "É": 138,
  "Ê": 139,
  "Ë": 140,
  "Ì": 141,
  "Í": 142,
  "Î": 143,
  "Ï": 144,
  "Ð": 145,
  "Ñ": 146,
  "Ò": 147,
  "Ó": 148,
  "Ô": 149,
  "Õ": 150,
  "Ö": 151,
  "×": 152,
  "Ø": 153,
  "Ù": 154,
  "Ú": 155,
  "Û": 156,
  "Ü": 157,
  "Ý": 158,
  "Þ": 159,
  "ß": 160,
  "à": 161,
  "á": 162,
  "â": 163,
  "ã": 164,
  "ä": 165,
  "å": 166,
  "æ": 167,
  "ç": 168,
  "è": 169,
  "é": 170,
  "ê": 171,
  "ë": 172,
  "ì": 173,
  "í": 174,
  "î": 175,
  "ï": 176,
  "ð": 177,
  "ñ": 178,
  "ò": 179,
  "ó": 180,
  "ô": 181,
  "õ": 182,
  "ö": 183,
  "÷": 184,
  "ø": 185,
  "ù": 186,
  "ú": 187,
  "û": 188,
  "ü": 189,
  "ý": 190,
  "þ": 191,
  "ÿ": 192,
  "Ā": 193,
  "ā": 194,
  "Ă": 195,
  "ă": 196,
  "Ą": 197,
  "ą": 198,
  "Ć": 199,
  "ć": 200,
  "Ĉ": 201,
  "ĉ": 202,
  "Ċ": 203,
  "ċ": 204,
  "Č": 205,
  "č": 206,
  "Ď": 207,
  "ď": 208,
  "Đ": 209,
  "đ": 210,
  "Ē": 211,
  "ē": 212,
  "Ĕ": 213,
  "ĕ": 214,
  "Ė": 215,
  "ė": 216,
  "Ę": 217,
  "ę": 218,
  "Ě": 219,
  "ě": 220,
  "Ĝ": 221,
  "ĝ": 222,
  "Ğ": 223,
  "ğ": 224,
  "Ġ": 225,
  "ġ": 226,
  "Ģ": 227,
  "ģ": 228,
  "Ĥ": 229,
  "ĥ": 230,
  "Ħ": 231,
  "ħ": 232,
  "Ĩ": 233,
  "ĩ": 234,
  "Ī": 235,
  "ī": 236,
  "Ĭ": 237,
  "ĭ": 238,
  "Į": 239,
  "į": 240,
  "İ": 241,
  "ı": 242,
  "Ĳ": 243,
  "ĳ": 244,
  "Ĵ": 245,
  "ĵ": 246,
  "Ķ": 247,
  "ķ": 248,
  "ĸ": 249,
  "Ĺ": 250,
  "ĺ": 251,
  "Ļ": 252,
  "ļ": 253,
  "Ľ": 254,
  "ľ": 255,
  "Ŀ": 256,
  "ŀ": 257,
  "Ł": 258,
  "ł": 259,
  "Ń": 260,
  "in": 261,
  "Ġt": 262,
  "Ġa": 263,
  "on": 264,
  "er": 265,
  "at": 266,
  "Ġth": 267,
  "re": 268,
  "en": 269,
  "or": 270,
  "Ġs": 271,
  "ed": 272,
  "ing": 273,
  "al": 274,
  "es": 275,
  "Ġc": 276,
  "ion": 277,
  "Ġthe": 278,
  "ar": 279,
  "Ġo": 280,
  "it": 281,
  "is": 282,
  "le": 283,
  "Ġin": 284,
  "Ġp": 285,
  "ic": 286,
  "an": 287,
  "Ġm": 288,
  "Ġan": 289,
  "Ġb": 290,
  "Ġd": 291,
  "Ġf": 292,
  "ro": 293,
  "Ġw": 294,
  "Ġof": 295,
  "Ġand": 296,
  "Ġto": 297,
  "as": 298,
  "ch": 299,
  "ent": 300,
  "el": 301,
  "Ġn": 302,
  "Ġre": 303,
  "et": 304,
  "ct": 305,
  "om": 306,
  "ation": 307,
  "ut": 308,
  "us": 309,
  "Ġe": 310,
  "Ġh": 311,
  "Ġl": 312,
  "im": 313,
  "th": 314,
  "ra": 315,
  "Ġle": 316,
  "ce": 317,
  "ly": 318,
  "un": 319,
  "ĠA": 320,
  "Ġpro": 321,
  "arn": 322,
  "ur": 323,
  "Ġis": 324,
  "od": 325,
  "Ġlearn": 326,
  "ve": 327,
  "Ġbe": 328,
  "ul": 329,
  "ig": 330,
  "st": 331,
  "if": 332,
  "Ġde": 333,
  "il": 334,
  "Ġthat": 335,
  "ith": 336,
  "ers": 337,
  "Ġas": 338,
  "Ġ(": 339,
  "Ġlearning": 340,
  "Th": 341,
  "Ġma": 342,
  "Ġcom": 343,
  "Ġfor": 344,
  "Ġg": 345,
  "ol": 346,
  "em": 347,
  "ĠP": 348,
  "Ġus": 349,
  "ow": 350,
  "Ġsu": 351,
  "Ġcon": 352,
  "Ġex": 353,
  "Ġon": 354,
  "Ġal": 355,
  "Ġne": 356,
  "ial": 357,
  "id": 358,
  "ab": 359,
  "Ġst": 360,
  "Ġint": 361,
  "am": 362,
  "ine": 363,
  "ĠI": 364,
  "Ġwh": 365,
  "ag": 366,
  "yth": 367,
  "Ġby": 368,
  "Ġcomp": 369,
  "Ġ2": 370,
  "ĠTh": 371,
  "ot": 372,
  "ork": 373,
  "ython": 374,
  "res": 375,
  "Ġare": 376,
  "Ġv": 377,
  "Ġwith": 378,
  "pp": 379,
  "og": 380,
  "Ġ\"": 381,
  "etw": 382,
  "ect": 383,
  "ical": 384,
  "ep": 385,
  "ĠAI": 386,
  "Ġor": 387,
  "um": 388,
  "os": 389,
  "ver": 390,
  "Ġ20": 391,
  "ist": 392,
  "ess": 393,
  "ions": 394,
  "ir": 395,
  "Ġmod": 396,
  "Ġim": 397,
  "ay": 398,
  "ment": 399,
  "op": 400,
  "Ġdat": 401,
  "etwork": 402,
  "ific": 403,
  "per": 404,
  "Ġit": 405,
  "ate": 406,
  "Ġnetwork": 407,
  "iv": 408,
  "Ġcan": 409,
  "chine": 410,
  "ĠPython": 411,
  "ence": 412,
  "ations": 413,
  "ell": 414,
  "ĠC": 415,
  "Ġun": 416,
  "for": 417,
  "ive": 418,
  "ĠS": 419,
  "rain": 420,
  "ity": 421,
  "qu": 422,
  "Ġdata": 423,
  "ms": 424,
  "pe": 425,
  "ter": 426,
  "Ġneur": 427,
  "Ġmodel": 428,
  "pl": 429,
  "Ġr": 430,
  "ere": 431,
  "rom": 432,
  "ĠM": 433,
  "Ġmachine": 434,
  "ĠIn": 435,
  "ĠThe": 436,
  "Ġsy": 437,
  "ac": 438,
  "ies": 439,
  "ts": 440,
  "ud": 441,
  "Ġfrom": 442,
  "Ġres": 443,
  "Ġha": 444,
  "ble": 445,
  "ear": 446,
  "Ġ1": 447,
  "Ġar": 448,
  "Ġapp": 449,
  "ple": 450,
  "Ġinc": 451,
  "red": 452,
  "ener": 453,
  "age": 454,
  "form": 455,
  "ated": 456,
  "put": 457,
  "Ġcl": 458,
  "ĠG": 459,
  "Ġneural": 460,
  "ction": 461,
  "Ġused": 462,
  "earch": 463,
  "Ġtrain": 464,
  "ang": 465,
  "est": 466,
  "ition": 467,
  "gor": 468,
  "pt": 469,
  "ass": 470,
  "cess": 471,
  "stem": 472,
  "fer": 473,
  "Ġdeep": 474,
  "Ġnetworks": 475,
  "igh": 476,
  "ĠD": 477,
  "ĠR": 478,
  "ain": 479,
  "du": 480,
  "ous": 481,
  "Ġsuch": 482,
  "iz": 483,
  "and": 484,
  "Ġnot": 485,
  "ad": 486,
  "ich": 487,
  "Ġwas": 488,
  "eth": 489,
  "ther": 490,
  "ore": 491,
  "ign": 492,
  "Ġsystem": 493,
  "oc": 494,
  "vel": 495,
  "'s": 496,
  "ach": 497,
  "ke": 498,
  "Ġhave": 499,
  "Ġgener": 500,
  "gorith": 501,
  "ge": 502,
  "Ġrec": 503,
  "ult": 504,
  "able": 505,
  "gra": 506,
  "Ġwhich": 507,
  "Ġalgorith": 508,
  "ech": 509,
  "ased": 510,
  "Ġcomput": 511,
  "ri": 512,
  "ens": 513,
  "Ġspe": 514,
  "ict": 515,
  "tific": 516,
  "ans": 517,
  "ellig": 518,
  "ug": 519,
  "Ġcont": 520,
  "tificial": 521,
  "ort": 522,
  "ari": 523,
  "Ġ19": 524,
  "pres": 525,
  "led": 526,
  "Ġad": 527,
  "ard": 528,
  "und": 529,
  "lud": 530,
  "ure": 531,
  "Ġprogra": 532,
  "Ġat": 533,
  "Ġen": 534,
  "ant": 535,
  "ks": 536,
  "Ġhum": 537,
  "ĠF": 538,
  "so": 539,
  "ff": 540,
  "ĠB": 541,
  "Ġch": 542,
  "Ġ202": 543,
  "are": 544,
  "ĠN": 545,
  "angu": 546,
  "Ġper": 547,
  "Ġtr": 548,
  "Ġman": 549,
  "Ġlay": 550,
  "Ġmodels": 551,
  "Ġinclud": 552,
  "ill": 553,
  "ogn": 554,
  "elligence": 555,
  "ory": 556,
  "ics": 557,
  "ack": 558,
  "ĠE": 559,
  "ely": 560,
  "Ġhas": 561,
  "Ġlangu": 562,
  "Ġclass": 563,
  "Ġ3": 564,
  "ĠH": 565,
  "end": 566,
  "art": 567,
  "ome": 568,
  "Ġk": 569,
  "Ġout": 570,
  "Ġproble": 571,
  "act": 572,
  "Ġfe": 573,
  "Ġ201": 574,
  "Ġexam": 575,
  "Ġinter": 576,
  ").": 577,
  "ath": 578,
  "ethod": 579,
  "ugh": 580,
  "NN": 581,
  "Ġdec": 582,
  "velop": 583,
  "ĠL": 584,
  "ance": 585,
  "Ġmethod": 586,
  "Ġdis": 587,
  "Ġstat": 588,
  "ative": 589,
  "Ġdevelop": 590,
  "Ġresearch": 591,
  "Ġtraining": 592,
  "ost": 593,
  "ĠT": 594,
  "ons": 595,
  "Ġse": 596,
  "ision": 597,
  "Ġbeen": 598,
  "The": 599,
  "yp": 600,
  "ĠU": 601,
  "Ġac": 602,
  "Ġprocess": 603,
  "Ġhuman": 604,
  "now": 605,
  "ese": 606,
  "Ġimp": 607,
  "Ġappro": 608,
  "In": 609,
  "der": 610,
  "lic": 611,
  "ual": 612,
  "Ġdes": 613,
  "Ġrecogn": 614,
  "Ġprogram": 615,
  "ures": 616,
  "Ġfun": 617,
  "Ġuse": 618,
  "li": 619,
  "oul": 620,
  "ĠJ": 621,
  "Ġtheir": 622,
  "Ġpred": 623,
  "ould": 624,
  "ind": 625,
  "ors": 626,
  "ary": 627,
  "Ġpre": 628,
  "),": 629,
  "ap": 630,
  "ber": 631,
  "Ġob": 632,
  "low": 633,
  "Ġother": 634,
  "Ġvari": 635,
  "Ġartificial": 636,
  "present": 637,
  "su": 638,
  "ame": 639,
  "ject": 640,
  "out": 641,
  "ys": 642,
  "ast": 643,
  "Ġalso": 644,
  "ces": 645,
  "Ġinput": 646,
  "Ġev": 647,
  "Ġintelligence": 648,
  "Ġsystems": 649,
  "eep": 650,
  "Ġsh": 651,
  "Ġwere": 652,
  "eld": 653,
  "ust": 654,
  "Ġlar": 655,
  "Ġtas": 656,
  "Ġthis": 657,
  "Ġrepresent": 658,
  "olog": 659,
  "ages": 660,
  "Ġknow": 661,
  "Ġpredict": 662,
  "Python": 663,
  "ci": 664,
  "ced": 665,
  "Ġdif": 666,
  "Ġlanguage": 667,
  "ec": 668,
  "ield": 669,
  "Ġset": 670,
  "ised": 671,
  "ents": 672,
  "Ġmay": 673,
  "Ġcons": 674,
  "Ġmany": 675,
  "ie": 676,
  "Ġthan": 677,
  "ility": 678,
  "Ġits": 679,
  "Ġalgorithms": 680,
  "âĢ": 681,
  "Ġab": 682,
  "Ġmore": 683,
  "Ġbi": 684,
  "Ġbut": 685,
  "ically": 686,
  "tern": 687,
  "echn": 688,
  "\".": 689,
  "Ġag": 690,
  "ong": 691,
  "Ġoper": 692,
  "Ġem": 693,
  "ime": 694,
  "Ġgo": 695,
  "rit": 696,
  "Ġcal": 697,
  "Ġinto": 698,
  "Ġexample": 699,
  "ten": 700,
  "ware": 701,
  "ĠW": 702,
  "ord": 703,
  "Ġstr": 704,
  "Ġperform": 705,
  "Ġtechn": 706,
  "ating": 707,
  "ates": 708,
  "Ġdo": 709,
  "ational": 710,
  "Ġass": 711,
  "ĠThis": 712,
  "Ġlarge": 713,
  "up": 714,
  "Ġbec": 715,
  "Ġfeat": 716,
  "Ġrecognition": 717,
  "ph": 718,
  "ub": 719,
  "Ġthey": 720,
  "arly": 721,
  "Ġanal": 722,
  "ases": 723,
  "ential": 724,
  "Ġtrans": 725,
  "ren": 726,
  "Ġbo": 727,
  "Ġsupp": 728,
  "Ġmethods": 729,
  "ex": 730,
  "een": 731,
  "Ġso": 732,
  "Ġsome": 733,
  "Ġpl": 734,
  "Ġmult": 735,
  "ode": 736,
  "oss": 737,
  "00": 738,
  "ile": 739,
  "ĠO": 740,
  "int": 741,
  "Ġtyp": 742,
  "Ġsign": 743,
  "ional": 744,
  "ish": 745,
  "ase": 746,
  "ight": 747,
  "Ġalgorithm": 748,
  "Ġlayers": 749,
  "Ġoutput": 750,
  "Ġfunction": 751,
  "cial": 752,
  "ft": 753,
  "ved": 754,
  "Ġsol": 755,
  "Ġnum": 756,
  "Ġli": 757,
  "Ġcomm": 758,
  "ide": 759,
  "perv": 760,
  "Ġaut": 761,
  "alu": 762,
  "Ġph": 763,
  "Ġrel": 764,
  "Ġone": 765,
  "ak": 766,
  "av": 767,
  "Ġsim": 768,
  "Ġpart": 769,
  "ĠIt": 770,
  "ĠGo": 771,
  "rib": 772,
  "eg": 773,
  "ines": 774,
  "Ġthese": 775,
  "Ġacc": 776,
  "pervised": 777,
  "aus": 778,
  "Ġover": 779,
  "Ġfield": 780,
  "Ġprodu": 781,
  "Ġgeneral": 782,
  "Ġproblems": 783,
  "Ġtasks": 784,
  "ible": 785,
  "Ġact": 786,
  "ator": 787,
  "its": 788,
  "lect": 789,
  "Ġfir": 790,
  "Ġdef": 791,
  "Ġsub": 792,
  "etween": 793,
  "Ġcalled": 794,
  "Ġro": 795,
  "ern": 796,
  "als": 797,
  "Ġbetween": 798,
  "Ġreg": 799,
  "Ġusing": 800,
  "Ġnew": 801,
  "Ġapplic": 802,
  "Ġapproach": 803,
  "ob": 804,
  "tain": 805,
  "ress": 806,
  "ification": 807,
  "plement": 808,
  "Ġincre": 809,
  "Ġdisc": 810,
  "AI": 811,
  "iqu": 812,
  "Ġind": 813,
  "Ġpat": 814,
  "Ġeff": 815,
  "Ġhigh": 816,
  "cept": 817,
  "Ġprov": 818,
  "emat": 819,
  "Ġimplement": 820,
  "Ġunder": 821,
  "Ġincluding": 822,
  "Ġstatem": 823,
  "Ġfirst": 824,
  "ever": 825,
  "ient": 826,
  "pos": 827,
  "Ġtime": 828,
  "ree": 829,
  "all": 830,
  "rough": 831,
  "Ġwe": 832,
  "Ġwill": 833,
  "ples": 834,
  "ledge": 835,
  "athemat": 836,
  "Ġprogramm": 837,
  "Ġdiffer": 838,
  "based": 839,
  "dition": 840,
  "ia": 841,
  "uct": 842,
  "ward": 843,
  "Ġco": 844,
  "Ġme": 845,
  "Ġrele": 846,
  "Ġhow": 847,
  "ident": 848,
  "ound": 849,
  "Ġmost": 850,
  "Ġmathemat": 851,
  "Ġcomputer": 852,
  "Ġlayer": 853,
  "Ġproblem": 854,
  ".,": 855,
  "les": 856,
  "nect": 857,
  "Ġcode": 858,
  "ĠAl": 859,
  "str": 860,
  "ifi": 861,
  "ower": 862,
  "Ġexper": 863,
  "formation": 864,
  "Ġtrained": 865,
  "Ġspeech": 866,
  "ace": 867,
  "ok": 868,
  "pre": 869,
  "pect": 870,
  "Ġj": 871,
  "lex": 872,
  "Ġback": 873,
  "Ġwork": 874,
  "ution": 875,
  "arning": 876,
  "uring": 877,
  "ular": 878,
  "ify": 879,
  "Ġwhere": 880,
  "ogle": 881,
  "Ġimage": 882,
  "Ġsupport": 883,
  "ire": 884,
  "Ġthen": 885,
  "Ġthrough": 886,
  "Ġopt": 887,
  "ities": 888,
  "Ġpr": 889,
  "ĠFor": 890,
  "NNs": 891,
  "Ġobject": 892,
  "Ġtechniqu": 893,
  "Ġfeatures": 894,
  "Ġmulti": 895,
  "bab": 896,
  "ful": 897,
  "pro": 898,
  "Ġsearch": 899,
  "Ġbased": 900,
  "Ġvers": 901,
  "ĠSt": 902,
  "Ġdecision": 903,
  "Ġdesign": 904,
  "ail": 905,
  "cy": 906,
  "wo": 907,
  "Ġident": 908,
  "Ġcol": 909,
  "Ġwould": 910,
  "Ġlog": 911,
  "old": 912,
  "Ġexpl": 913,
  "Ġallow": 914,
  "ments": 915,
  "press": 916,
  "Ġinclude": 917,
  "Ġimpro": 918,
  "Ġknowledge": 919,
  "âĢĵ": 920,
  "our": 921,
  "ĠK": 922,
  "Ġif": 923,
  "Ġqu": 924,
  "ertain": 925,
  "Ġpar": 926,
  "Ġdet": 927,
  "Ġoften": 928,
  "urren": 929,
  "Ġexpress": 930,
  "Ġresearchers": 931,
  "Ġprogramming": 932,
  "ip": 933,
  "ough": 934,
  "vers": 935,
  "Ġra": 936,
  "Ġtwo": 937,
  "Ġuses": 938,
  "Ġconnect": 939,
  "Ġcompil": 940,
  "istic": 941,
  "ference": 942,
  "Ġatt": 943,
  "Ġclassification": 944,
  "Ġpattern": 945,
  "vol": 946,
  "xim": 947,
  "Ġsp": 948,
  "Ġmat": 949,
  "omm": 950,
  "Ġonly": 951,
  "Ġris": 952,
  "ize": 953,
  "Ġdeveloped": 954,
  "Ġabout": 955,
  "Ġapplications": 956,
  "Ġoptim": 957,
  "Py": 958,
  "cal": 959,
  "ue": 960,
  "ving": 961,
  "vir": 962,
  "Ġtra": 963,
  "Ġam": 964,
  "Ġtheory": 965,
  "Ġpub": 966,
  "Ġposs": 967,
  "Ġrequ": 968,
  "Ġeach": 969,
  "ĠAn": 970,
  "ules": 971,
  "Ġform": 972,
  "Ġgra": 973,
  "Ġwhen": 974,
  "Ġneurons": 975,
  "Ġhad": 976,
  "ĠDeep": 977,
  "ization": 978,
  "Ġgenerative": 979,
  "Ġspec": 980,
  "ĠUn": 981,
  "Ġprocessing": 982,
  "Ġdesc": 983,
  "ĠGoogle": 984,
  "achine": 985,
  "eop": 986,
  "gan": 987,
  "ld": 988,
  "se": 989,
  "ser": 990,
  "Ġy": 991,
  "ences": 992,
  "ally": 993,
  "Ġcre": 994,
  "rodu": 995,
  "Ġwell": 996,
  "ason": 997,
  "Ġlab": 998,
  "Ġprobab": 999,
  "ural": 1000,
  "Ġext": 1001,
  "Ġintrodu": 1002,
  "ose": 1003,
  "Ġ198": 1004,
  "ology": 1005,
  "Ġperformance": 1006,
  "Ġstatement": 1007,
  "urrent": 1008,
  "viron": 1009,
  "bot": 1010,
  "con": 1011,
  "ired": 1012,
  "lish": 1013,
  "over": 1014,
  "ting": 1015,
  "Ġup": 1016,
  "Ġter": 1017,
  "Ġall": 1018,
  "iven": 1019,
  "ively": 1020,
  "oci": 1021,
  "ather": 1022,
  "ysis": 1023,
  "Ġtechniques": 1024,
  "king": 1025,
  "Ġthere": 1026,
  "itect": 1027,
  "ism": 1028,
  "Ġmin": 1029,
  "chitect": 1030,
  "elf": 1031,
  "Ġreason": 1032,
  "Ġmake": 1033,
  "Ġsuc": 1034,
  "Ġarchitect": 1035,
  "Ġenviron": 1036,
  "Ġsever": 1037,
  "Ġconsid": 1038,
  "Ġnumber": 1039,
  "hav": 1040,
  "ib": 1041,
  "ian": 1042,
  "mb": 1043,
  "ness": 1044,
  "oy": 1045,
  "port": 1046,
  "Ġcap": 1047,
  "ise": 1048,
  "Ġpower": 1049,
  "Ġbl": 1050,
  "Ġbrain": 1051,
  "ctions": 1052,
  "olic": 1053,
  "Ġconc": 1054,
  "Ġcomplex": 1055,
  "Ġvalu": 1056,
  "Ġimages": 1057,
  "Ġprograms": 1058,
  "ext": 1059,
  "eople": 1060,
  "Ġsuccess": 1061,
  "Ġseveral": 1062,
  "\",": 1063,
  "Deep": 1064,
  "ding": 1065,
  "ew": 1066,
  "fic": 1067,
  "pag": 1068,
  "rtificial": 1069,
  "sp": 1070,
  "ince": 1071,
  "Ġthem": 1072,
  "ite": 1073,
  "Ġpeople": 1074,
  "Ġdist": 1075,
  "Ġfact": 1076,
  "Ġway": 1077,
  "Ġno": 1078,
  "Ġequ": 1079,
  "imens": 1080,
  "Ġbeing": 1081,
  "inear": 1082,
  "ĠThese": 1083,
  "ized": 1084,
  "Ġinterpre": 1085,
  "ually": 1086,
  "supervised": 1087,
  "ause": 1088,
  "Ġeffect": 1089,
  "Ġlogic": 1090,
  "PU": 1091,
  "ious": 1092,
  "ule": 1093,
  "orld": 1094,
  "ark": 1095,
  "ited": 1096,
  "itive": 1097,
  "Ġinf": 1098,
  "Ġinformation": 1099,
  "Ġpot": 1100,
  "Ġmed": 1101,
  "Ġbu": 1102,
  "Ġbel": 1103,
  "Ġnon": 1104,
  "Ġhand": 1105,
  "the": 1106,
  "Ġbehav": 1107,
  "Ġstud": 1108,
  "Ġinteg": 1109,
  "Ġ199": 1110,
  "ĠLe": 1111,
  "Ġanalysis": 1112,
  "Ġdifferent": 1113,
  "Ġmathematical": 1114,
  "Ġdetect": 1115,
  "Ġreasoning": 1116,
  "not": 1117,
  "Ġser": 1118,
  "arg": 1119,
  "Ġfound": 1120,
  "row": 1121,
  "Ġredu": 1122,
  "Ġhard": 1123,
  "Ġpropos": 1124,
  "ols": 1125,
  "ĠPro": 1126,
  "owever": 1127,
  "Ġwhile": 1128,
  "ploy": 1129,
  "Ġsyn": 1130,
  "Ġlanguages": 1131,
  "Ġexamples": 1132,
  "Ġstatist": 1133,
  "Ġdevelopment": 1134,
  "Ġshow": 1135,
  "Ġlike": 1136,
  "Ġmultiple": 1137,
  "Ġpotential": 1138,
  "lo": 1139,
  "pen": 1140,
  "te": 1141,
  "ype": 1142,
  "Ġest": 1143,
  "Ġcor": 1144,
  "Ġinst": 1145,
  "ann": 1146,
  "Ġany": 1147,
  "Ġwrit": 1148,
  "ets": 1149,
  "Ġearly": 1150,
  "Ġrather": 1151,
  "ights": 1152,
  "Ġcomputing": 1153,
  "iction": 1154,
  "Ġprev": 1155,
  "Ġstruct": 1156,
  "ftware": 1157,
  "Ġprovid": 1158,
  "ditional": 1159,
  "cale": 1160,
  "lished": 1161,
  "Ġbehavi": 1162,
  "20": 1163,
  "de": 1164,
  "den": 1165,
  "ne": 1166,
  "ov": 1167,
  "uc": 1168,
  "yn": 1169,
  "Ġtest": 1170,
  "one": 1171,
  "Ġsc": 1172,
  "Ġcould": 1173,
  "Ġcertain": 1174,
  "isions": 1175,
  "Ġreport": 1176,
  "ists": 1177,
  "Ġdecisions": 1178,
  "Ġapproxim": 1179,
  "lied": 1180,
  "Ġoperator": 1181,
  "Ġboth": 1182,
  "propag": 1183,
  "Ġintroduced": 1184,
  "Ġenvironment": 1185,
  "Ġconsider": 1186,
  "Ġbuil": 1187,
  ".\"": 1188,
  "aw": 1189,
  "fter": 1190,
  "oun": 1191,
  "ry": 1192,
  "Ġsame": 1193,
  "Ġsci": 1194,
  "Ġcent": 1195,
  "icro": 1196,
  "chines": 1197,
  "Ġreal": 1198,
  "ety": 1199,
  "Ġelect": 1200,
  "Ġhe": 1201,
  "Ġlearned": 1202,
  "Ġmachines": 1203,
  "Ġgiven": 1204,
  "ables": 1205,
  "Ġwhat": 1206,
  "Ġcompan": 1207,
  "Ġcontain": 1208,
  "ological": 1209,
  "Ġgoal": 1210,
  "Ġpartic": 1211,
  "Ġdiscover": 1212,
  "Ġpatterns": 1213,
  "Ġdescrib": 1214,
  "Ġhardware": 1215,
  "19": 1216,
  "ake": 1217,
  "br": 1218,
  "other": 1219,
  "off": 1220,
  "ĠV": 1221,
  "ĠâĢĵ": 1222,
  "Ġtype": 1223,
  "ings": 1224,
  "Ġpo": 1225,
  "icient": 1226,
  "ram": 1227,
  "ract": 1228,
  "ulation": 1229,
  "ults": 1230,
  "Ġ200": 1231,
  "oph": 1232,
  "ives": 1233,
  "ĠInt": 1234,
  "Ġapplied": 1235,
  "ock": 1236,
  "Ġcomputational": 1237,
  "Ġadv": 1238,
  "Ġfunctions": 1239,
  "Ġobser": 1240,
  "Ġtypically": 1241,
  "Ġcommon": 1242,
  "Ġsimil": 1243,
  "Ġapproaches": 1244,
  "ression": 1245,
  "ommend": 1246,
  "Ġpossible": 1247,
  "imensional": 1248,
  "propagation": 1249,
  "gy": 1250,
  "lu": 1251,
  "ted": 1252,
  "Ġve": 1253,
  "Ġeth": 1254,
  "ined": 1255,
  "onom": 1256,
  "Ġsm": 1257,
  "Ġsur": 1258,
  "ances": 1259,
  "Ġfind": 1260,
  "Ġissu": 1261,
  "ilos": 1262,
  "ĠCh": 1263,
  "Ġunits": 1264,
  "Ġresults": 1265,
  "Ġarg": 1266,
  "Ġeng": 1267,
  "Ġ2024": 1268,
  "Ġknown": 1269,
  "Ġdiffic": 1270,
  "Ġsoftware": 1271,
  "Ġrelated": 1272,
  "Ġrobot": 1273,
  "ified": 1274,
  "Ġidentify": 1275,
  "Ġimprove": 1276,
  "Ġspecific": 1277,
  "ilosoph": 1278,
  "Ġdifficult": 1279,
  "ST": 1280,
  "air": 1281,
  "com": 1282,
  "ix": 1283,
  "mm": 1284,
  "nal": 1285,
  "Ġ=": 1286,
  "infor": 1287,
  "Ġav": 1288,
  "Ġafter": 1289,
  "ators": 1290,
  "Ġsit": 1291,
  "isation": 1292,
  "learning": 1293,
  "Ġpop": 1294,
  "ices": 1295,
  "Ġmem": 1296,
  "Ġdom": 1297,
  "Ġdiv": 1298,
  "Ġwid": 1299,
  "etic": 1300,
  "Ġlead": 1301,
  "Ġdep": 1302,
  "Ġexist": 1303,
  "ificant": 1304,
  "plic": 1305,
  "Ġ196": 1306,
  "ĠHowever": 1307,
  "like": 1308,
  "Ġvarious": 1309,
  "Ġinputs": 1310,
  "âĢĶ": 1311,
  "Ġdoes": 1312,
  "Ġsignificant": 1313,
  "Ġoutputs": 1314,
  "Ġsolve": 1315,
  "ception": 1316,
  "Ġbackpropagation": 1317,
  "Ġconcern": 1318,
  "PUs": 1319,
  "inforce": 1320,
  "fore": 1321,
  "hip": 1322,
  "ner": 1323,
  "rast": 1324,
  "ĠY": 1325,
  "Ġke": 1326,
  "Ġach": 1327,
  "ice": 1328,
  "ick": 1329,
  "ants": 1330,
  "Ġfin": 1331,
  "Ġfoc": 1332,
  "Ġtools": 1333,
  "ently": 1334,
  "uss": 1335,
  "Ġlong": 1336,
  "Ġlevel": 1337,
  "ĠAm": 1338,
  "ilities": 1339,
  "Ġexec": 1340,
  "ability": 1341,
  "Ġwho": 1342,
  "Ġresult": 1343,
  "andom": 1344,
  "andard": 1345,
  "Ġhumans": 1346,
  "Ġchang": 1347,
  "Ġ2020": 1348,
  "Ġimport": 1349,
  "Ġtask": 1350,
  "Ġpredictions": 1351,
  "Ġbecause": 1352,
  "Ġanaly": 1353,
  "Ġtypes": 1354,
  "Ġautom": 1355,
  "Ġphys": 1356,
  "Ġregression": 1357,
  "Ġdesigned": 1358,
  "Ġterm": 1359,
  "Ġbelie": 1360,
  "Ġstudy": 1361,
  "Ġdetection": 1362,
  "ĠIntelligence": 1363,
  "Ġsitu": 1364,
  "inforcement": 1365,
  "Ġachie": 1366,
  "fit": 1367,
  "ron": 1368,
  "ss": 1369,
  "scale": 1370,
  "ature": 1371,
  "Ġinv": 1372,
  "rol": 1373,
  "Ġref": 1374,
  "imes": 1375,
  "Ġcomb": 1376,
  "Ġneg": 1377,
  "ived": 1378,
  "ĠCon": 1379,
  "pecial": 1380,
  "ĠThey": 1381,
  "Ġart": 1382,
  "Ġvariables": 1383,
  "Ġevalu": 1384,
  "Ġagents": 1385,
  "Ġassign": 1386,
  "Ġfeature": 1387,
  "pha": 1388,
  "Ġplay": 1389,
  "Ġrelations": 1390,
  "Ġreleased": 1391,
  "Ġpublished": 1392,
  "Ġlabel": 1393,
  "ework": 1394,
  "Ġdistrib": 1395,
  "Ġintegr": 1396,
  "Ġproposed": 1397,
  "Ġestim": 1398,
  "Ġprevious": 1399,
  "ramework": 1400,
  "Ġsimilar": 1401,
  "EP": 1402,
  "bers": 1403,
  "cing": 1404,
  "jor": 1405,
  "of": 1406,
  "pon": 1407,
  "ric": 1408,
  "rans": 1409,
  "train": 1410,
  "uro": 1411,
  "Ġer": 1412,
  "Ġtarg": 1413,
  "ater": 1414,
  "Ġsing": 1415,
  "Ġsent": 1416,
  "Ġsince": 1417,
  "lear": 1418,
  "lection": 1419,
  "Ġpers": 1420,
  "Ġpos": 1421,
  "Ġmis": 1422,
  "Ġbet": 1423,
  "Ġduring": 1424,
  "Ġdiction": 1425,
  "Ġfac": 1426,
  "round": 1427,
  "Ġword": 1428,
  "Ġhid": 1429,
  "Ġlo": 1430,
  "Ġlim": 1431,
  "though": 1432,
  "Ġproject": 1433,
  "urther": 1434,
  "ilistic": 1435,
  "Ġsupervised": 1436,
  "Ġstate": 1437,
  "ames": 1438,
  "Ġwithout": 1439,
  "Ġsymb": 1440,
  "ferences": 1441,
  "Ġrecommend": 1442,
  "ĠUS": 1443,
  "Ġeven": 1444,
  "Ġrepresentation": 1445,
  "Ġability": 1446,
  "Ġbiological": 1447,
  "Ġagent": 1448,
  "Ġsignal": 1449,
  "Ġlibr": 1450,
  "Ġautonom": 1451,
  "Ġimplementation": 1452,
  "Ġversion": 1453,
  "Ġversions": 1454,
  "Ġrisk": 1455,
  "Ġarchitectures": 1456,
  "spired": 1457,
  "Ġmedical": 1458,
  "Ġstatistical": 1459,
  "Ġcompanies": 1460,
  "Ġavail": 1461,
  "Ġfocus": 1462,
  "ience": 1463,
  "ling": 1464,
  "oth": 1465,
  "ood": 1466,
  "pts": 1467,
  "ty": 1468,
  "Ġes": 1469,
  "onstr": 1470,
  "ery": 1471,
  "ering": 1472,
  "read": 1473,
  "Ġsom": 1474,
  "Ġsens": 1475,
  "Ġtheore": 1476,
  "arm": 1477,
  "any": 1478,
  "Ġdire": 1479,
  "Ġfol": 1480,
  "elp": 1481,
  "Ġrece": 1482,
  "ctor": 1483,
  "ctly": 1484,
  "utions": 1485,
  "uture": 1486,
  "Ġhelp": 1487,
  "racy": 1488,
  "ĠArtificial": 1489,
  "ulate": 1490,
  "Ġmajor": 1491,
  "Ġgen": 1492,
  "Ġneed": 1493,
  "istory": 1494,
  "ivers": 1495,
  "Ġrules": 1496,
  "Ġrule": 1497,
  "Ġspeed": 1498,
  "Ġspecial": 1499,
  "elligent": 1500,
  "Ġcontin": 1501,
  "ĠBy": 1502,
  "Ġ2023": 1503,
  "ording": 1504,
  "Ġassoci": 1505,
  "Ġtransform": 1506,
  "Ġmeas": 1507,
  "Ġamong": 1508,
  "Ġinflu": 1509,
  "Ġwritten": 1510,
  "Ġstructure": 1511,
  "ynam": 1512,
  "Ġsmall": 1513,
  "Ġengine": 1514,
  "Ġanalyz": 1515,
  "Ġerr": 1516,
  "Ġavailable": 1517,
  "Machine": 1518,
  "Net": 1519,
  "Re": 1520,
  "ax": 1521,
  "apt": 1522,
  "by": 1523,
  "cc": 1524,
  "gg": 1525,
  "lass": 1526,
  "ning": 1527,
  "pons": 1528,
  "ran": 1529,
  "sy": 1530,
  "time": 1531,
  "ued": 1532,
  "uch": 1533,
  "vices": 1534,
  "wh": 1535,
  "wn": 1536,
  "way": 1537,
  "yle": 1538,
  "ination": 1539,
  "atory": 1540,
  "Ġsem": 1541,
  "ality": 1542,
  "Ġcurrent": 1543,
  "Ġopen": 1544,
  "iss": 1545,
  "ising": 1546,
  "Ġdi": 1547,
  "Ġdynam": 1548,
  "asing": 1549,
  "aster": 1550,
  "Ġret": 1551,
  "iment": 1552,
  "Ġbegan": 1553,
  "igin": 1554,
  "There": 1555,
  "Ġusers": 1556,
  "Ġsuper": 1557,
  "Ġstandard": 1558,
  "amet": 1559,
  "Ġvide": 1560,
  "Ġorigin": 1561,
  "Ġdatas": 1562,
  "ĠCPython": 1563,
  "Ġrun": 1564,
  "Ġrandom": 1565,
  "ĠMachine": 1566,
  "ĠGe": 1567,
  "ether": 1568,
  "Ġadd": 1569,
  "ĠNo": 1570,
  "Ġprocesses": 1571,
  "Ġvariable": 1572,
  "Ġgover": 1573,
  "Ġgoals": 1574,
  "Ġbecame": 1575,
  "000": 1576,
  "Ġphilosoph": 1577,
  "Ġactiv": 1578,
  "Ġincrease": 1579,
  "Ġcoun": 1580,
  "Ġexpressions": 1581,
  "Ġconnected": 1582,
  "Ġattem": 1583,
  "Ġpublic": 1584,
  "Ġrequire": 1585,
  "ĠLearning": 1586,
  "201": 1587,
  "STM": 1588,
  "airness": 1589,
  "Ġdivision": 1590,
  "Ġnegative": 1591,
  "pecially": 1592,
  "Ġsingle": 1593,
  "Ġbetter": 1594,
  "Ġhidden": 1595,
  "Ġespecially": 1596,
  "Ġfollow": 1597,
  "Al": 1598,
  "Go": 1599,
  "ML": 1600,
  "Ne": 1601,
  "PT": 1602,
  "St": 1603,
  "ier": 1604,
  "line": 1605,
  "par": 1606,
  "uracy": 1607,
  "val": 1608,
  "ves": 1609,
  "vent": 1610,
  "Ġent": 1611,
  "Ġtake": 1612,
  "Ġable": 1613,
  "Ġaction": 1614,
  "Ġthose": 1615,
  "Ġself": 1616,
  "Ġcrit": 1617,
  "aries": 1618,
  "itions": 1619,
  "Ġmust": 1620,
  "Ġfuture": 1621,
  "chm": 1622,
  "omput": 1623,
  "Ġeas": 1624,
  "Ġlinear": 1625,
  "Ġproper": 1626,
  "odes": 1627,
  "stand": 1628,
  "Ġdem": 1629,
  "Ġgame": 1630,
  "ĠPh": 1631,
  "ĠPEP": 1632,
  "Ġexpect": 1633,
  "ably": 1634,
  "Ġvision": 1635,
  "very": 1636,
  "Ġcannot": 1637,
  "Ġunc": 1638,
  "Ġunsupervised": 1639,
  "Ġneuron": 1640,
  "Ġcontext": 1641,
  "Ġ2025": 1642,
  "ĠEx": 1643,
  "ended": 1644,
  "Ġ2016": 1645,
  "Ġinternal": 1646,
  "ĠTuring": 1647,
  "Ġshould": 1648,
  "Ġaccuracy": 1649,
  "Ġproduct": 1650,
  "Ġjob": 1651,
  "Ġallows": 1652,
  "Ġspace": 1653,
  "Ġrisks": 1654,
  "Ġoptimization": 1655,
  "Ġcreated": 1656,
  "Ġmining": 1657,
  "Ġvalue": 1658,
  "Ġinterpret": 1659,
  "Ġcorre": 1660,
  "uclear": 1661,
  "Ġreported": 1662,
  "Ġpopular": 1663,
  "Ġkey": 1664,
  "Ġinvest": 1665,
  "Ġrelationship": 1666,
  "Ġautonomous": 1667,
  "Ġgovern": 1668,
  "DE": 1669,
  "bl": 1670,
  "dimensional": 1671,
  "lation": 1672,
  "less": 1673,
  "linear": 1674,
  "oint": 1675,
  "Ġ9": 1676,
  "Ġed": 1677,
  "Ġet": 1678,
  "inci": 1679,
  "Ġtree": 1680,
  "Ġtext": 1681,
  "atic": 1682,
  "ately": 1683,
  "ene": 1684,
  "orm": 1685,
  "Ġsa": 1686,
  "Ġcases": 1687,
  "arch": 1688,
  "Ġown": 1689,
  "iter": 1690,
  "Ġinspired": 1691,
  "Ġpass": 1692,
  "Ġmind": 1693,
  "Ġdr": 1694,
  "Ġframework": 1695,
  "Ġfairness": 1696,
  "roup": 1697,
  "Ġworld": 1698,
  "Ġread": 1699,
  "Ġreference": 1700,
  "usion": 1701,
  "Ġled": 1702,
  "Ġlow": 1703,
  "Ġlaw": 1704,
  "urce": 1705,
  "ularly": 1706,
  "Ġmade": 1707,
  "ials": 1708,
  "Ġstep": 1709,
  "Ġorder": 1710,
  "ayer": 1711,
  "ayes": 1712,
  "elled": 1713,
  "play": 1714,
  "acy": 1715,
  "Ġrespons": 1716,
  "ears": 1717,
  "ĠRNN": 1718,
  "duct": 1719,
  "izing": 1720,
  "ript": 1721,
  "Ġcontrast": 1722,
  "Ġcontrol": 1723,
  "Ġ197": 1724,
  "Ġaddition": 1725,
  "unding": 1726,
  "illion": 1727,
  "Ġ2015": 1728,
  "Ġimpact": 1729,
  "Ġrepresented": 1730,
  "Ġrepresentations": 1731,
  "cious": 1732,
  "iew": 1733,
  "Ġbias": 1734,
  "Ġtechnology": 1735,
  "Ġassum": 1736,
  "Ġcommun": 1737,
  "aking": 1738,
  "Ġproduce": 1739,
  "Ġhigher": 1740,
  "Ġimplementations": 1741,
  "Ġstatements": 1742,
  "Ġmean": 1743,
  "ĠAlpha": 1744,
  "Ġjust": 1745,
  "Ġworks": 1746,
  "Ġobjects": 1747,
  "Ġparamet": 1748,
  "Ġexpression": 1749,
  "Ġamoun": 1750,
  "ĠUnited": 1751,
  "Ġprobability": 1752,
  "Ġ1980": 1753,
  "Ġarchitecture": 1754,
  "Ġcapable": 1755,
  "Ġvalues": 1756,
  "Ġ1990": 1757,
  "Ġbehavior": 1758,
  "Ġconsidered": 1759,
  "Ġscience": 1760,
  "Ġethical": 1761,
  "Ġ==": 1762,
  "Ġdomain": 1763,
  "Ġdepend": 1764,
  "Ġphysical": 1765,
  "Ġbelief": 1766,
  "Ġtarget": 1767,
  "Artificial": 1768,
  "Con": 1769,
  "bo": 1770,
  "bed": 1771,
  "bit": 1772,
  "ges": 1773,
  "hold": 1774,
  "ires": 1775,
  "tical": 1776,
  "tax": 1777,
  "uid": 1778,
  "Ġ+": 1779,
  "Ġ4": 1780,
  "Ġ8": 1781,
  "Ġel": 1782,
  "inc": 1783,
  "Ġtre": 1784,
  "ata": 1785,
  "ats": 1786,
  "atural": 1787,
  "Ġthough": 1788,
  "ency": 1789,
  "alth": 1790,
  "Ġcy": 1791,
  "Ġcogn": 1792,
  "Ġcost": 1793,
  "isual": 1794,
  "level": 1795,
  "Ġinvol": 1796,
  "Ġpres": 1797,
  "Ġbas": 1798,
  "Ġful": 1799,
  "Ġfil": 1800,
  "Ġfail": 1801,
  "Ġnodes": 1802,
  "Ġnuclear": 1803,
  "Ġreinforcement": 1804,
  "Ġloc": 1805,
  "imin": 1806,
  "thers": 1807,
  "ĠAs": 1808,
  "ĠPy": 1809,
  "Ġconf": 1810,
  "Ġconst": 1811,
  "Ġstart": 1812,
  "Ġwithin": 1813,
  "Ġiter": 1814,
  "Ġunt": 1815,
  "Ġunivers": 1816,
  "pec": 1817,
  "term": 1818,
  "ĠMicro": 1819,
  "ĠRe": 1820,
  "Ġgenerate": 1821,
  "Ġcomputation": 1822,
  "Ġcontent": 1823,
  "soft": 1824,
  "fficient": 1825,
  "Ġcho": 1826,
  "Ġ2022": 1827,
  "Ġtrue": 1828,
  "ĠEn": 1829,
  "Ġclassifi": 1830,
  "Ġkind": 1831,
  "Ġfeed": 1832,
  "Ġ2010": 1833,
  "ĠLSTM": 1834,
  "ĠTrans": 1835,
  "Ġuseful": 1836,
  "Ġbiases": 1837,
  "Ġoperations": 1838,
  "Ġemploy": 1839,
  "Ġembed": 1840,
  "ĠWh": 1841,
  "Ġbecom": 1842,
  "Ġbecome": 1843,
  "Ġbook": 1844,
  "Ġsolutions": 1845,
  "Ġnumbers": 1846,
  "Ġproduced": 1847,
  "Ġprinci": 1848,
  "Ġquest": 1849,
  "Ġmater": 1850,
  "Ġgraph": 1851,
  "Ġyears": 1852,
  "Ġprobabilistic": 1853,
  "Ġsuccessful": 1854,
  "Ġfactor": 1855,
  "Ġprovides": 1856,
  "Ġbuilt": 1857,
  "Ġexecut": 1858,
  "fitting": 1859,
  "Ġperson": 1860,
  "Ġdictionary": 1861,
  "ayesian": 1862,
  "\")": 1863,
  "..": 1864,
  "//": 1865,
  "50": 1866,
  "An": 1867,
  "As": 1868,
  "ME": 1869,
  "Other": 1870,
  "az": 1871,
  "aper": 1872,
  "dient": 1873,
  "lab": 1874,
  "lob": 1875,
  "mage": 1876,
  "mber": 1877,
  "ole": 1878,
  "och": 1879,
  "por": 1880,
  "ral": 1881,
  "sk": 1882,
  "Ġ-": 1883,
  "Ġ7": 1884,
  "ĠX": 1885,
  "inform": 1886,
  "Ġaround": 1887,
  "rey": 1888,
  "ream": 1889,
  "ests": 1890,
  "esearch": 1891,
  "Ġcate": 1892,
  "arial": 1893,
  "artificial": 1894,
  "aract": 1895,
  "Ġothers": 1896,
  "itations": 1897,
  "Ġpolic": 1898,
  "Ġanother": 1899,
  "Ġbre": 1900,
  "Ġdel": 1901,
  "Ġflo": 1902,
  "Ġfurther": 1903,
  "ross": 1904,
  "Ġwin": 1905,
  "entation": 1906,
  "Ġname": 1907,
  "etimes": 1908,
  "Ġhyp": 1909,
  "Ġless": 1910,
  "Ġlate": 1911,
  "Ġleast": 1912,
  "lying": 1913,
  "ĠAlex": 1914,
  "Ġbefore": 1915,
  "ither": 1916,
  "Ġgroup": 1917,
  "own": 1918,
  "abilities": 1919,
  "Ġcompon": 1920,
  "Ġcompet": 1921,
  "Ġdatab": 1922,
  "ivacy": 1923,
  "ĠCA": 1924,
  "quence": 1925,
  "rie": 1926,
  "ense": 1927,
  "ĠNe": 1928,
  "Ġpercept": 1929,
  "Ġ2012": 1930,
  "Ġ2017": 1931,
  "Ġdevelopers": 1932,
  "Ġprediction": 1933,
  "Ġnumer": 1934,
  "Ġauth": 1935,
  "akes": 1936,
  "Ġactions": 1937,
  "Ġapplication": 1938,
  "Ġincreasing": 1939,
  "Ġunderstand": 1940,
  "Ġhowever": 1941,
  "Ġmathematics": 1942,
  "Ġcollect": 1943,
  "Ġexplain": 1944,
  "Ġimproved": 1945,
  "versarial": 1946,
  "Ġcompiler": 1947,
  "Ġblock": 1948,
  "Ġcomplexity": 1949,
  "Ġinterpreter": 1950,
  "Ġcenters": 1951,
  "Ġparticularly": 1952,
  "Ġdiscovery": 1953,
  "Ġvector": 1954,
  "Ġissues": 1955,
  "Ġmemory": 1956,
  "Ġwidely": 1957,
  "Ġimportant": 1958,
  "Ġrefers": 1959,
  "Ġlibrary": 1960,
  "Ġsemant": 1961,
  "Ġdynamic": 1962,
  "Ġattempt": 1963,
  "Ġuncertain": 1964,
  "Ġuntil": 1965,
  "Ġcategor": 1966,
  "Ġhypoth": 1967,
  ");": 1968,
  "BN": 1969,
  "Ex": 1970,
  "Mind": 1971,
  "VM": 1972,
  "eb": 1973,
  "field": 1974,
  "hance": 1975,
  "kes": 1976,
  "sing": 1977,
  "uly": 1978,
  "world": 1979,
  "xt": 1980,
  "Ġ'": 1981,
  "Ġ5": 1982,
  "Ġut": 1983,
  "information": 1984,
  "erm": 1985,
  "ercial": 1986,
  "Ġthus": 1987,
  "Ġthree": 1988,
  "orts": 1989,
  "Ġsoci": 1990,
  "esis": 1991,
  "itial": 1992,
  "ises": 1993,
  "Ġmight": 1994,
  "Ġmark": 1995,
  "Ġbest": 1996,
  "Ġdown": 1997,
  "Ġfit": 1998,
  "uted": 1999,
  "utional": 2000,
  "Ġhis": 2001,
  "Ġharm": 2002,
  "Ġhistory": 2003,
  "Ġlack": 2004,
  "Ġliter": 2005,
  "ĠApp": 2006,
  "ĠANN": 2007,
  "Ġprom": 2008,
  "ody": 2009,
  "oding": 2010,
  "Ġdeploy": 2011,
  "Ġmain": 2012,
  "Ġmaking": 2013,
  "Ġmakes": 2014,
  "idual": 2015,
  "ĠIS": 2016,
  "ĠIf": 2017,
  "Ġwhether": 2018,
  "ĠThere": 2019,
  "Ġvir": 2020,
  "epend": 2021,
  "ird": 2022,
  "Ġmodules": 2023,
  "forms": 2024,
  "ĠSh": 2025,
  "Ġmodeling": 2026,
  "Ġright": 2027,
  "ĠInd": 2028,
  "Ġrespect": 2029,
  "energy": 2030,
  "ĠRoss": 2031,
  "ocial": 2032,
  "ocum": 2033,
  "rix": 2034,
  "Ġend": 2035,
  "ĠFace": 2036,
  "ĠBayesian": 2037,
  "Ġcharact": 2038,
  "Ġ2026": 2039,
  "Ġmanip": 2040,
  "Ġincludes": 2041,
  "ĠHint": 2042,
  "Ġinterest": 2043,
  "aps": 2044,
  "such": 2045,
  "Ġlarg": 2046,
  "ternational": 2047,
  "Ġstrate": 2048,
  "Ġsupports": 2049,
  "Ġaccording": 2050,
  "Ġoverfitting": 2051,
  "Ġdefin": 2052,
  "Ġsubs": 2053,
  "Ġindust": 2054,
  "Ġefficient": 2055,
  "Ġprovide": 2056,
  "Ġimplemented": 2057,
  "Ġweights": 2058,
  "Ġreleases": 2059,
  "Ġexperience": 2060,
  "ifying": 2061,
  "Ġprivacy": 2062,
  "Ġcollection": 2063,
  "Ġallowing": 2064,
  "Ġrare": 2065,
  "Ġcompiles": 2066,
  "Ġtraditional": 2067,
  "Ġpossib": 2068,
  "Ġgradient": 2069,
  "ĠDeepMind": 2070,
  "Ġextens": 2071,
  "conom": 2072,
  "Ġterms": 2073,
  "Ġeffects": 2074,
  "Ġsyntax": 2075,
  "Ġshowed": 2076,
  "Ġpotentially": 2077,
  "Ġhealth": 2078,
  "Ġparticular": 2079,
  "Ġdescribed": 2080,
  "Ġobserv": 2081,
  "Ġsurve": 2082,
  "Ġargued": 2083,
  "mmar": 2084,
  "Ġconcerns": 2085,
  "Ġlevels": 2086,
  "Ġsituation": 2087,
  "Ġdistribution": 2088,
  "trained": 2089,
  "Ġsometimes": 2090,
  "Ġgenetic": 2091,
  "Ġcontinu": 2092,
  "Ġdiag": 2093,
  "Ġoriginal": 2094,
  "ĠGeoff": 2095,
  "Ġdemonstr": 2096,
  "Ġexpected": 2097,
  "Ġrelationships": 2098,
  "Ġmeaning": 2099,
  "Ġtrees": 2100,
  "ĠMicrosoft": 2101,
  "ĠRossum": 2102,
  "ĠHinton": 2103,
  "11": 2104,
  "AS": 2105,
  "cur": 2106,
  "ee": 2107,
  "fold": 2108,
  "ging": 2109,
  "gress": 2110,
  "her": 2111,
  "ily": 2112,
  "lar": 2113,
  "making": 2114,
  "ou": 2115,
  "ps": 2116,
  "spec": 2117,
  "ties": 2118,
  "tual": 2119,
  "uction": 2120,
  "Ġenergy": 2121,
  "Ġaim": 2122,
  "atch": 2123,
  "atible": 2124,
  "atbot": 2125,
  "atively": 2126,
  "Ġthous": 2127,
  "Ġthird": 2128,
  "Ġsam": 2129,
  "Ġsocial": 2130,
  "Ġcur": 2131,
  "ley": 2132,
  "Ġinitial": 2133,
  "Ġpur": 2134,
  "icit": 2135,
  "Ġmon": 2136,
  "Ġmet": 2137,
  "Ġann": 2138,
  "Ġant": 2139,
  "Ġbad": 2140,
  "Ġdid": 2141,
  "Ġdocum": 2142,
  "eler": 2143,
  "Ġnatural": 2144,
  "Ġrev": 2145,
  "omal": 2146,
  "ute": 2147,
  "Ġele": 2148,
  "Ġeither": 2149,
  "Ġlist": 2150,
  "ĠAr": 2151,
  "Ġprof": 2152,
  "urn": 2153,
  "ulated": 2154,
  "Ġmaxim": 2155,
  "Ġgrow": 2156,
  "ement": 2157,
  "Ġuser": 2158,
  "Ġconce": 2159,
  "Ġonce": 2160,
  "Ġneuro": 2161,
  "Ġvia": 2162,
  "Ġvisual": 2163,
  "Ġorgan": 2164,
  "Ġmodern": 2165,
  "Ġimplic": 2166,
  "ivity": 2167,
  "ells": 2168,
  "ĠCNN": 2169,
  "ĠComput": 2170,
  "forward": 2171,
  "quently": 2172,
  "Ġrang": 2173,
  "Ġrights": 2174,
  "ĠMon": 2175,
  "ĠMany": 2176,
  "aces": 2177,
  "acks": 2178,
  "Ġ10": 2179,
  "ĠDNNs": 2180,
  "ĠRec": 2181,
  "ands": 2182,
  "adem": 2183,
  "rior": 2184,
  "ensor": 2185,
  "aren": 2186,
  "ĠEach": 2187,
  "Ġfew": 2188,
  "Ġ2014": 2189,
  "Ġ2019": 2190,
  "Ġinteract": 2191,
  "Ġdise": 2192,
  "Ġstates": 2193,
  "Ġacadem": 2194,
  "lier": 2195,
  "astic": 2196,
  "Ġsets": 2197,
  "Ġconscious": 2198,
  "Ġagain": 2199,
  "Ġoperating": 2200,
  "Ġemot": 2201,
  "Ġplann": 2202,
  "ĠOpen": 2203,
  "Ġlik": 2204,
  "Ġacceler": 2205,
  "Ġfields": 2206,
  "Ġdefined": 2207,
  "Ġdiscuss": 2208,
  "allen": 2209,
  "Ġdifferential": 2210,
  "Ġmeans": 2211,
  "Ġexperiment": 2212,
  "Ġsupported": 2213,
  "volutional": 2214,
  "Ġmatch": 2215,
  "Ġmatrix": 2216,
  "Ġlabelled": 2217,
  "Ġthereby": 2218,
  "Ġreduce": 2219,
  "Ġstatistics": 2220,
  "Ġprovided": 2221,
  "Ġbehaviour": 2222,
  "Ġapproximate": 2223,
  "Ġbuild": 2224,
  "Ġscient": 2225,
  "Ġleading": 2226,
  "Ġsituations": 2227,
  "Ġassignment": 2228,
  "Ġestimated": 2229,
  "Ġsymbolic": 2230,
  "ready": 2231,
  "Ġtheoretical": 2232,
  "Ġdirectly": 2233,
  "Ġengineering": 2234,
  "Ġerror": 2235,
  "Ġreturn": 2236,
  "Ġvideo": 2237,
  "Ġphilosophy": 2238,
  "Ġactivation": 2239,
  "Ġproducts": 2240,
  "Ġimpacts": 2241,
  "includ": 2242,
  "Ġcognitive": 2243,
  "Ġlocal": 2244,
  "ĠPyPy": 2245,
  "Ġembedding": 2246,
  "Ġquestion": 2247,
  "lobal": 2248,
  "ĠISBN": 2249,
  "Ġcharacter": 2250,
  "Ġdiagn": 2251,
  "ĠGeoffrey": 2252,
  "60": 2253,
  "78": 2254,
  "AN": 2255,
  "GPT": 2256,
  "IT": 2257,
  "Pro": 2258,
  "Su": 2259,
  "aim": 2260,
  "ared": 2261,
  "action": 2262,
  "dis": 2263,
  "ead": 2264,
  "fe": 2265,
  "gth": 2266,
  "gener": 2267,
  "hu": 2268,
  "hic": 2269,
  "io": 2270,
  "know": 2271,
  "late": 2272,
  "mit": 2273,
  "man": 2274,
  "most": 2275,
  "oud": 2276,
  "oks": 2277,
  "pri": 2278,
  "ured": 2279,
  "vin": 2280,
  "writ": 2281,
  "word": 2282,
  "Ġ0": 2283,
  "Ġens": 2284,
  "Ġide": 2285,
  "ints": 2286,
  "ero": 2287,
  "atics": 2288,
  "Ġthin": 2289,
  "rec": 2290,
  "reed": 2291,
  "enced": 2292,
  "ories": 2293,
  "Ġsize": 2294,
  "ingu": 2295,
  "allow": 2296,
  "Ġcar": 2297,
  "Ġcase": 2298,
  "Ġocc": 2299,
  "Ġins": 2300,
  "Ġinference": 2301,
  "Ġpract": 2302,
  "anced": 2303,
  "ancial": 2304,
  "Ġment": 2305,
  "Ġmillion": 2306,
  "Ġbro": 2307,
  "Ġbody": 2308,
  "Ġded": 2309,
  "Ġdig": 2310,
  "Ġdue": 2311,
  "Ġfre": 2312,
  "Ġfaster": 2313,
  "Ġoff": 2314,
  "ched": 2315,
  "ented": 2316,
  "Ġnam": 2317,
  "Ġrestr": 2318,
  "uster": 2319,
  "Ġevery": 2320,
  "Ġeconom": 2321,
  "Ġhier": 2322,
  "Ġlater": 2323,
  "imate": 2324,
  "raction": 2325,
  "Ġleg": 2326,
  "vember": 2327,
  "Ġbeg": 2328,
  "ilit": 2329,
  "Ġgames": 2330,
  "Ġexact": 2331,
  "Ġalway": 2332,
  "Ġalready": 2333,
  "Ġnever": 2334,
  "Ġnecess": 2335,
  "Ġnext": 2336,
  "Ġstoch": 2337,
  "Ġintelligent": 2338,
  "Ġcomple": 2339,
  "Ġvan": 2340,
  "Ġvery": 2341,
  "uman": 2342,
  "osen": 2343,
  "Ġ2000": 2344,
  "istics": 2345,
  "irc": 2346,
  "opy": 2347,
  "ividual": 2348,
  "ĠComm": 2349,
  "ĠSim": 2350,
  "Ġrate": 2351,
  "Ġrates": 2352,
  "ĠMod": 2353,
  "ĠMark": 2354,
  "Ġarbit": 2355,
  "Ġclaim": 2356,
  "Ġcloud": 2357,
  "ferred": 2358,
  "ĠDif": 2359,
  "ĠDNN": 2360,
  "ĠData": 2361,
  "adig": 2362,
  "Ġrecurrent": 2363,
  "Ġspeak": 2364,
  "Ġadditional": 2365,
  "Ġadapt": 2366,
  "Ġenc": 2367,
  "ffect": 2368,
  "Ġchatbot": 2369,
  "Ġchallen": 2370,
  "ĠNew": 2371,
  "Ġperception": 2372,
  "Ġclasses": 2373,
  "Ġsee": 2374,
  "Ġrecognize": 2375,
  "Ġobtain": 2376,
  "Ġshort": 2377,
  "ologies": 2378,
  "Ġpredictive": 2379,
  "Ġconsum": 2380,
  "Ġitself": 2381,
  "Ġstring": 2382,
  "entially": 2383,
  "Ġtranslation": 2384,
  "Ġsignals": 2385,
  "Ġcommercial": 2386,
  "Ġaccur": 2387,
  "Ġgenerally": 2388,
  "Ġincrement": 2389,
  "Ġindividual": 2390,
  "iented": 2391,
  "Ġweight": 2392,
  "Ġrelease": 2393,
  "struct": 2394,
  "Ġexperts": 2395,
  "Ġtechnique": 2396,
  "Ġexplicit": 2397,
  "Ġconnection": 2398,
  "Ġconnections": 2399,
  "Ġrequired": 2400,
  "ĠAnother": 2401,
  "Ġyet": 2402,
  "Ġminim": 2403,
  "mbolic": 2404,
  "Ġcapabilities": 2405,
  "Ġreduction": 2406,
  "Ġsynaps": 2407,
  "Ġinstances": 2408,
  "Ġelectric": 2409,
  "199": 2410,
  "Ġobserved": 2411,
  "Ġvehic": 2412,
  "Ġ1960": 2413,
  "ĠAmaz": 2414,
  "ĠConference": 2415,
  "Ġlabels": 2416,
  "Ġmisinformation": 2417,
  "Ġlook": 2418,
  "Ġlimitations": 2419,
  "Ġprojects": 2420,
  "Ġrecommendations": 2421,
  "Ġassociated": 2422,
  "Ġanalyzed": 2423,
  "ggs": 2424,
  "Ġdatasets": 2425,
  "ĠNovember": 2426,
  "Neural": 2427,
  "Ġproperties": 2428,
  "Ġ978": 2429,
  "ormal": 2430,
  "Ġparameters": 2431,
  "Ġamounts": 2432,
  "Ġclassifier": 2433,
  "Ġkinds": 2434,
  "sky": 2435,
  "Ġunderstanding": 2436,
  "Ġvirtual": 2437,
  "ependent": 2438,
  "Ġrange": 2439,
  "Ġacademic": 2440,
  "including": 2441,
  "Ġhierarch": 2442,
  "Ġalways": 2443,
  "Ġstochastic": 2444,
  "Ġarbitr": 2445,
  "Ġsynapses": 2446,
  "ĠAmazon": 2447,
  "++": 2448,
  "DL": 2449,
  "EE": 2450,
  "GI": 2451,
  "LP": 2452,
  "Rec": 2453,
  "back": 2454,
  "come": 2455,
  "class": 2456,
  "cript": 2457,
  "fety": 2458,
  "hn": 2459,
  "hens": 2460,
  "human": 2461,
  "ik": 2462,
  "iver": 2463,
  "layer": 2464,
  "mann": 2465,
  "nom": 2466,
  "ored": 2467,
  "rons": 2468,
  "tz": 2469,
  "tun": 2470,
  "ters": 2471,
  "ues": 2472,
  "uation": 2473,
  "vant": 2474,
  "we": 2475,
  "ystem": 2476,
  "ĠZ": 2477,
  "inning": 2478,
  "Ġtu": 2479,
  "Ġtimes": 2480,
  "ond": 2481,
  "ered": 2482,
  "att": 2483,
  "Ġthres": 2484,
  "reg": 2485,
  "rel": 2486,
  "rehens": 2487,
  "enc": 2488,
  "enchm": 2489,
  "oration": 2490,
  "oriented": 2491,
  "Ġsw": 2492,
  "Ġsep": 2493,
  "alid": 2494,
  "Ġcare": 2495,
  "Ġcaus": 2496,
  "Ġcross": 2497,
  "Ġcopy": 2498,
  "aris": 2499,
  "arks": 2500,
  "Ġopp": 2501,
  "Ġprior": 2502,
  "ici": 2503,
  "icism": 2504,
  "Ġmal": 2505,
  "Ġmicro": 2506,
  "Ġmuch": 2507,
  "Ġannot": 2508,
  "Ġanomal": 2509,
  "Ġban": 2510,
  "Ġbene": 2511,
  "Ġfore": 2512,
  "Ġfunding": 2513,
  "Ġoffer": 2514,
  "Ġtop": 2515,
  "Ġtoward": 2516,
  "els": 2517,
  "Ġrepl": 2518,
  "Ġreach": 2519,
  "Ġreward": 2520,
  "Ġla": 2521,
  "Ġlat": 2522,
  "Ġlever": 2523,
  "lynom": 2524,
  "Ġlearns": 2525,
  "stant": 2526,
  "ifically": 2527,
  "Ġdevices": 2528,
  "Ġget": 2529,
  "olution": 2530,
  "ĠPl": 2531,
  "ĠPer": 2532,
  "Ġusually": 2533,
  "Ġsugg": 2534,
  "Ġsufficient": 2535,
  "Ġonline": 2536,
  "Ġalong": 2537,
  "idence": 2538,
  "Ġstren": 2539,
  "Ġstyle": 2540,
  "Ġwhite": 2541,
  "Ġcompos": 2542,
  "Ġcomprehens": 2543,
  "Ġareas": 2544,
  "Ġvs": 2545,
  "Ġvalid": 2546,
  "eph": 2547,
  "Ġimm": 2548,
  "iving": 2549,
  "ĠCNNs": 2550,
  "ĠSome": 2551,
  "ĠSchm": 2552,
  "ĠMach": 2553,
  "ĠInst": 2554,
  "Ġhaving": 2555,
  "Ġclos": 2556,
  "Ġcluster": 2557,
  "ĠGPUs": 2558,
  "ĠResearch": 2559,
  "Ġgeneration": 2560,
  "echan": 2561,
  "icted": 2562,
  "arily": 2563,
  "Ġ1950": 2564,
  "Ġadj": 2565,
  "Ġadding": 2566,
  "Ġadversarial": 2567,
  "ĠBrit": 2568,
  "Ġ2021": 2569,
  "illions": 2570,
  "Ġoutcom": 2571,
  "ught": 2572,
  "Ġsecon": 2573,
  "ĠJuly": 2574,
  "Ġprec": 2575,
  "Ġvariety": 2576,
  "Ġevent": 2577,
  "Ġshallow": 2578,
  "Ġconsist": 2579,
  "âĢĲ": 2580,
  "ternal": 2581,
  "Ġcalc": 2582,
  "Ġstrong": 2583,
  "Ġperforming": 2584,
  "Ġanalog": 2585,
  "Ġtransp": 2586,
  "Ġsource": 2587,
  "ĠOther": 2588,
  "intelligence": 2589,
  "Ġtyping": 2590,
  "Ġsolution": 2591,
  "Ġsolving": 2592,
  "Ġpartial": 2593,
  "Ġactors": 2594,
  "Ġsubject": 2595,
  "Ġround": 2596,
  "Ġregular": 2597,
  "Ġincreased": 2598,
  "Ġunderlying": 2599,
  "Ġbackward": 2600,
  "ĠStates": 2601,
  "Ġidentified": 2602,
  "Ġallowed": 2603,
  "ources": 2604,
  "Ġquant": 2605,
  "Ġparadig": 2606,
  "Ġdeterm": 2607,
  "volution": 2608,
  "Ġspar": 2609,
  "Ġtrac": 2610,
  "Ġrequires": 2611,
  "ĠAnd": 2612,
  "Ġgrammar": 2613,
  "Ġcreating": 2614,
  "Ġblack": 2615,
  "spam": 2616,
  "Ġequal": 2617,
  "Ġhandle": 2618,
  "Ġservices": 2619,
  "Ġestab": 2620,
  "Ġinstance": 2621,
  "Ġtesting": 2622,
  "Ġapproximation": 2623,
  "Ġcontains": 2624,
  "Ġpoints": 2625,
  "Ġpolynom": 2626,
  "Ġ2009": 2627,
  "imensionality": 2628,
  "Ġethics": 2629,
  "Ġissue": 2630,
  "ĠChin": 2631,
  "ĠChat": 2632,
  "Ġrobots": 2633,
  "Ġdomin": 2634,
  "Ġdepth": 2635,
  "ussell": 2636,
  "Ġachieve": 2637,
  "Ġachieved": 2638,
  "Ġcombination": 2639,
  "Ġplaying": 2640,
  "Ġintegrated": 2641,
  "training": 2642,
  "urope": 2643,
  "Ġpositive": 2644,
  "Ġmeasure": 2645,
  "Ġerrors": 2646,
  "issions": 2647,
  "Ġdataset": 2648,
  "Ġcount": 2649,
  "Ġfollowing": 2650,
  "Google": 2651,
  "ventional": 2652,
  "Ġjobs": 2653,
  "Ġinvestig": 2654,
  "Ġgovernment": 2655,
  "Ġdrug": 2656,
  "Ġlaws": 2657,
  "ductive": 2658,
  "Ġcommunity": 2659,
  "Ġdomains": 2660,
  "book": 2661,
  "Ġthought": 2662,
  "Ġconstrain": 2663,
  "Ġuniversal": 2664,
  "Ġchoose": 2665,
  "Ġbecomes": 2666,
  "Ġmaterials": 2667,
  "informatics": 2668,
  "Ġpolicy": 2669,
  "Ġcomponent": 2670,
  "Ġincreasingly": 2671,
  "Ġsociety": 2672,
  "Ġmarket": 2673,
  "Ġmanipulation": 2674,
  "Ġsubset": 2675,
  "Ġindustry": 2676,
  "specific": 2677,
  "Ġthousands": 2678,
  "Ġmonth": 2679,
  "Ġconcepts": 2680,
  "Ġagainst": 2681,
  "Ġplanning": 2682,
  "Ġlikely": 2683,
  "Ġexperimental": 2684,
  "Ġidea": 2685,
  "Ġbroad": 2686,
  "Ġnamed": 2687,
  "Ġvehicles": 2688,
  "Ġthreshold": 2689,
  "Ġsepar": 2690,
  "stantial": 2691,
  "Ġstrength": 2692,
  "ĠSchmid": 2693,
  "ĠBritish": 2694,
  "Ġoutcomes": 2695,
  "Ġsecond": 2696,
  ".)": 2697,
  "13": 2698,
  "80": 2699,
  "App": 2700,
  "CA": 2701,
  "Cun": 2702,
  "FR": 2703,
  "Gener": 2704,
  "However": 2705,
  "History": 2706,
  "IM": 2707,
  "Le": 2708,
  "MM": 2709,
  "Ph": 2710,
  "Some": 2711,
  "See": 2712,
  "Un": 2713,
  "ah": 2714,
  "ave": 2715,
  "ape": 2716,
  "cle": 2717,
  "ded": 2718,
  "ey": 2719,
  "eam": 2720,
  "ffer": 2721,
  "hib": 2722,
  "lder": 2723,
  "ma": 2724,
  "ober": 2725,
  "pr": 2726,
  "pass": 2727,
  "ries": 2728,
  "right": 2729,
  "rimin": 2730,
  "sol": 2731,
  "to": 2732,
  "uff": 2733,
  "uary": 2734,
  "work": 2735,
  "zz": 2736,
  "Ã¼": 2737,
  "Ġ\\": 2738,
  "ining": 2739,
  "Ġaud": 2740,
  "erve": 2741,
  "reat": 2742,
  "organ": 2743,
  "eder": 2744,
  "Ġcore": 2745,
  "Ġcirc": 2746,
  "arrow": 2747,
  "itute": 2748,
  "Ġinher": 2749,
  "Ġpath": 2750,
  "Ġpast": 2751,
  "Ġpix": 2752,
  "Ġpaper": 2753,
  "Ġmo": 2754,
  "Ġmass": 2755,
  "Ġmechan": 2756,
  "Ġbran": 2757,
  "Ġbenchm": 2758,
  "Ġder": 2759,
  "Ġden": 2760,
  "Ġdra": 2761,
  "Ġdest": 2762,
  "Ġdone": 2763,
  "Ġfra": 2764,
  "Ġfive": 2765,
  "Ġfals": 2766,
  "Ġfour": 2767,
  "Ġwatch": 2768,
  "Ġoffic": 2769,
  "ash": 2770,
  "ention": 2771,
  "Ġnow": 2772,
  "Ġnature": 2773,
  "Ġnames": 2774,
  "Ġrem": 2775,
  "etrie": 2776,
  "uth": 2777,
  "utable": 2778,
  "Ġear": 2779,
  "Ġeggs": 2780,
  "Ġhold": 2781,
  "Ġlast": 2782,
  "iments": 2783,
  "raft": 2784,
  "ĠAt": 2785,
  "Ġlearner": 2786,
  "ulner": 2787,
  "ulatory": 2788,
  "style": 2789,
  "Ġdev": 2790,
  "ilayer": 2791,
  "Ġgr": 2792,
  "Ġgu": 2793,
  "Ġguid": 2794,
  "ollar": 2795,
  "oltz": 2796,
  "empor": 2797,
  "ows": 2798,
  "Ġsuffer": 2799,
  "Ġconver": 2800,
  "Ġconvolutional": 2801,
  "Ġexpon": 2802,
  "Ġalthough": 2803,
  "amb": 2804,
  "ĠIDE": 2805,
  "ĠImage": 2806,
  "aging": 2807,
  "oted": 2808,
  "Ġarea": 2809,
  "Ġview": 2810,
  "Ġvulner": 2811,
  "pping": 2812,
  "ogra": 2813,
  "osed": 2814,
  "vert": 2815,
  "essional": 2816,
  "ays": 2817,
  "elling": 2818,
  "Ġund": 2819,
  "Ġunit": 2820,
  "ĠSince": 2821,
  "ĠSne": 2822,
  "ĠSuch": 2823,
  "tered": 2824,
  "Ġrational": 2825,
  "ĠMay": 2826,
  "aced": 2827,
  "Ġhapp": 2828,
  "itional": 2829,
  "ption": 2830,
  "cessing": 2831,
  "ferent": 2832,
  "ĠDe": 2833,
  "ĠDem": 2834,
  "ĠRetrie": 2835,
  "ouse": 2836,
  "ously": 2837,
  "izes": 2838,
  "Ġgenerating": 2839,
  "Ġgenerator": 2840,
  "Ġreconstr": 2841,
  "Ġcomputers": 2842,
  "Ġadop": 2843,
  "Ġadvert": 2844,
  "source": 2845,
  "Ġchec": 2846,
  "Ġtry": 2847,
  "Ġmanag": 2848,
  "Ġ30": 2849,
  "Ġfeel": 2850,
  "Ġinteraction": 2851,
  "Ġdisci": 2852,
  "Ġsecur": 2853,
  "ypically": 2854,
  "Ġacqu": 2855,
  "Ġaccess": 2856,
  "Ġhumanity": 2857,
  "ĠJap": 2858,
  "indows": 2859,
  "Ġpreferences": 2860,
  "Ġevents": 2861,
  "Ġpredicting": 2862,
  "Ġconse": 2863,
  "Ġbio": 2864,
  "Ġbiased": 2865,
  "Ġoperate": 2866,
  "Ġemer": 2867,
  "Ġemph": 2868,
  "ĠWindows": 2869,
  "Ġtechnologies": 2870,
  "Ġassess": 2871,
  "rend": 2872,
  "Ġplant": 2873,
  "Ġmultilayer": 2874,
  "ĠOne": 2875,
  "intelligent": 2876,
  "Ġfunctional": 2877,
  "Ġfunctionality": 2878,
  "Ġphot": 2879,
  "Ġactive": 2880,
  "Ġdefend": 2881,
  "Ġsubstantial": 2882,
  "obot": 2883,
  "Ġindic": 2884,
  "Ġindex": 2885,
  "Ġindentation": 2886,
  "pose": 2887,
  "alluc": 2888,
  "Ġweb": 2889,
  "Ġrelevant": 2890,
  "ĠAll": 2891,
  "Ġexperiments": 2892,
  "Ġcollab": 2893,
  "Ġlogical": 2894,
  "Ġparts": 2895,
  "verse": 2896,
  "Ġdescent": 2897,
  "Ġupd": 2898,
  "Ġupon": 2899,
  "Ġenvironments": 2900,
  "Ġconsiders": 2901,
  "Ġfacts": 2902,
  "Ġways": 2903,
  "Ġequation": 2904,
  "Ġequations": 2905,
  "Ġeffective": 2906,
  "Ġnonlinear": 2907,
  "Ġ1991": 2908,
  "ĠLeCun": 2909,
  "Ġseries": 2910,
  "Ġreducing": 2911,
  "Ġstructures": 2912,
  "Ġdescribe": 2913,
  "Ġdescribes": 2914,
  "Ġexisting": 2915,
  "Ġsignificantly": 2916,
  "Ġconcerned": 2917,
  "ĠYann": 2918,
  "Ġfinancial": 2919,
  "Ġlonger": 2920,
  "Ġresulting": 2921,
  "Ġchanged": 2922,
  "Ġautomat": 2923,
  "ronic": 2924,
  "Ġartic": 2925,
  "Ġevaluation": 2926,
  "Ġdistributed": 2927,
  "Ġpreviously": 2928,
  "Ġlimited": 2929,
  "Ġlibraries": 2930,
  "Ġfocuses": 2931,
  "Ġreceives": 2932,
  "Ġspecialized": 2933,
  "Ġmeasures": 2934,
  "Ġanalyze": 2935,
  "ccording": 2936,
  "symbolic": 2937,
  "ission": 2938,
  "Although": 2939,
  "Ġeasily": 2940,
  "ĠPEPs": 2941,
  "ĠExam": 2942,
  "Ġcorrectly": 2943,
  "Ġkeyword": 2944,
  "Ġpassed": 2945,
  "Ġinvolves": 2946,
  "Ġbasic": 2947,
  "Ġfull": 2948,
  "Ġfully": 2949,
  "Ġfilter": 2950,
  "Ġfeedforward": 2951,
  "ĠWhile": 2952,
  "Ġbreak": 2953,
  "Ġdatabase": 2954,
  "ĠCAP": 2955,
  "ĠNeural": 2956,
  "Ġperceptron": 2957,
  "Ġnumerical": 2958,
  "Ġauthor": 2959,
  "Ġsemantics": 2960,
  "hancement": 2961,
  "Ġutil": 2962,
  "ĠApple": 2963,
  "ĠFacebook": 2964,
  "Ġlarger": 2965,
  "Ġobservations": 2966,
  "ĠMonty": 2967,
  "ĠOpenAI": 2968,
  "huber": 2969,
  "Ġoccur": 2970,
  "Ġrestricted": 2971,
  "Ġexactly": 2972,
  "ĠMarkov": 2973,
  "Ġelectricity": 2974,
  "Ġhierarchy": 2975,
  "Ġarbitrary": 2976,
  "uropean": 2977,
  "Ġcountries": 2978,
  "Ġmonths": 2979,
  "ĠSchmidhuber": 2980,
  "Ġbranch": 2981,
  "ĠSnek": 2982,
  "ĠRetrieved": 2983,
  "Ġdiscipl": 2984,
  "Ġsecurity": 2985,
  "ĠJapan": 2986,
  "Ġemphas": 2987,
  "\").": 2988,
  "()": 2989,
  ".).": 2990,
  "10": 2991,
  "30": 2992,
  "56": 2993,
  "AME": 2994,
  "Comput": 2995,
  "EC": 2996,
  "Fe": 2997,
  "IST": 2998,
  "Image": 2999,
  "LI": 3000,
  "List": 3001,
  "Mod": 3002,
  "OS": 3003,
  "Script": 3004,
  "aught": 3005,
  "cC": 3006,
  "cl": 3007,
  "cer": 3008,
  "cist": 3009,
  "cons": 3010,
  "cli": 3011,
  "craft": 3012,
  "did": 3013,
  "deep": 3014,
  "ditions": 3015,
  "fined": 3016,
  "fusion": 3017,
  "gen": 3018,
  "ged": 3019,
  "gies": 3020,
  "greg": 3021,
  "hood": 3022,
  "ied": 3023,
  "iod": 3024,
  "ients": 3025,
  "kin": 3026,
  "ken": 3027,
  "lers": 3028,
  "light": 3029,
  "med": 3030,
  "mises": 3031,
  "net": 3032,
  "nov": 3033,
  "ohn": 3034,
  "ply": 3035,
  "pers": 3036,
  "pite": 3037,
  "point": 3038,
  "rial": 3039,
  "ruct": 3040,
  "rgen": 3041,
  "sw": 3042,
  "sci": 3043,
  "side": 3044,
  "sian": 3045,
  "tec": 3046,
  "targ": 3047,
  "uble": 3048,
  "uart": 3049,
  "uzz": 3050,
  "valu": 3051,
  "with": 3052,
  "xic": 3053,
  "{\\": 3054,
  "Ġ*": 3055,
  "Ġ/": 3056,
  "Ġ6": 3057,
  "Ġ<": 3058,
  "ink": 3059,
  "ins": 3060,
  "inction": 3061,
  "inary": 3062,
  "Ġtests": 3063,
  "Ġtensor": 3064,
  "Ġteam": 3065,
  "Ġtrend": 3066,
  "eric": 3067,
  "rem": 3068,
  "rew": 3069,
  "represent": 3070,
  "enari": 3071,
  "orn": 3072,
  "order": 3073,
  "oratory": 3074,
  "Ġsend": 3075,
  "Ġslow": 3076,
  "Ġside": 3077,
  "Ġscale": 3078,
  "alle": 3079,
  "alities": 3080,
  "espre": 3081,
  "Ġcred": 3082,
  "Ġcult": 3083,
  "Ġcoding": 3084,
  "Ġcells": 3085,
  "Ġolder": 3086,
  "ites": 3087,
  "itch": 3088,
  "isition": 3089,
  "Ġpol": 3090,
  "Ġpsy": 3091,
  "Ġmor": 3092,
  "Ġmot": 3093,
  "Ġansw": 3094,
  "Ġbur": 3095,
  "Ġdimens": 3096,
  "Ġdimensionality": 3097,
  "Ġfo": 3098,
  "Ġfar": 3099,
  "Ġfine": 3100,
  "Ġfund": 3101,
  "Ġflow": 3102,
  "Ġfast": 3103,
  "Ġfree": 3104,
  "Ġfix": 3105,
  "rop": 3106,
  "roach": 3107,
  "Ġwater": 3108,
  "Ġtoo": 3109,
  "Ġtool": 3110,
  "Ġtoxic": 3111,
  "Ġnets": 3112,
  "Ġred": 3113,
  "Ġrest": 3114,
  "Ġreact": 3115,
  "Ġreli": 3116,
  "Ġreferred": 3117,
  "ctober": 3118,
  "omp": 3119,
  "oms": 3120,
  "using": 3121,
  "Ġhop": 3122,
  "Ġhund": 3123,
  "Ġloss": 3124,
  "Ġlower": 3125,
  "imal": 3126,
  "une": 3127,
  "unction": 3128,
  "unched": 3129,
  "ĠAd": 3130,
  "Ġprote": 3131,
  "Ġprogress": 3132,
  "odon": 3133,
  "ulations": 3134,
  "ulating": 3135,
  "ulia": 3136,
  "stream": 3137,
  "ife": 3138,
  "ifies": 3139,
  "ifold": 3140,
  "Ġforms": 3141,
  "Ġgain": 3142,
  "Ġglobal": 3143,
  "ember": 3144,
  "ements": 3145,
  "Ġusage": 3146,
  "Ġconstruct": 3147,
  "Ġconditions": 3148,
  "Ġexcept": 3149,
  "Ġexception": 3150,
  "Ġalmost": 3151,
  "ided": 3152,
  "abet": 3153,
  "Ġstill": 3154,
  "Ġstack": 3155,
  "aming": 3156,
  "ament": 3157,
  "ything": 3158,
  "Ġbytec": 3159,
  "Ġcompatible": 3160,
  "Ġcompared": 3161,
  "Ġcomparis": 3162,
  "Ġ22": 3163,
  "respon": 3164,
  "Ġver": 3165,
  "Ġvary": 3166,
  "pped": 3167,
  "pport": 3168,
  "umPy": 3169,
  "osis": 3170,
  "oseph": 3171,
  "istor": 3172,
  "istants": 3173,
  "open": 3174,
  "perform": 3175,
  "Ġitem": 3176,
  "ival": 3177,
  "Ġcandid": 3178,
  "Ġunless": 3179,
  "Ġunlab": 3180,
  "ĠSa": 3181,
  "ĠSo": 3182,
  "ĠSystem": 3183,
  "quences": 3184,
  "plain": 3185,
  "ĠMed": 3186,
  "ĠMore": 3187,
  "ĠMult": 3188,
  "ĠMost": 3189,
  "ĠMarch": 3190,
  "ĠInternational": 3191,
  "Ġresources": 3192,
  "Ġ18": 3193,
  "Ġincor": 3194,
  "Ġincom": 3195,
  "Ġclock": 3196,
  "ĠGPU": 3197,
  "ĠGPT": 3198,
  "ĠDec": 3199,
  "ĠReg": 3200,
  "ĠRFR": 3201,
  "Ġnotably": 3202,
  "ade": 3203,
  "ades": 3204,
  "ething": 3205,
  "gorithm": 3206,
  "Ġrecord": 3207,
  "arian": 3208,
  "Ġ194": 3209,
  "Ġenab": 3210,
  "ĠBo": 3211,
  "ĠBut": 3212,
  "ĠBoltz": 3213,
  "Ġchem": 3214,
  "Ġchess": 3215,
  "anguage": 3216,
  "Ġperiod": 3217,
  "Ġtries": 3218,
  "Ġincluded": 3219,
  "illance": 3220,
  "ĠEner": 3221,
  "Ġclassified": 3222,
  "ĠHe": 3223,
  "ĠHu": 3224,
  "ender": 3225,
  "Ġkern": 3226,
  "Ġ2018": 3227,
  "Ġdecre": 3228,
  "Ġdisag": 3229,
  "Ġdeveloping": 3230,
  "ĠTIM": 3231,
  "ĠTAME": 3232,
  "Ġsex": 3233,
  "Ġselect": 3234,
  "Ġselection": 3235,
  "ĠUsing": 3236,
  "nowledge": 3237,
  "Ġimposs": 3238,
  "Ġappropri": 3239,
  "International": 3240,
  "lications": 3241,
  "Ġrecognise": 3242,
  "ĠJav": 3243,
  "ĠJÃ¼": 3244,
  "ĠJohn": 3245,
  "ĠJoseph": 3246,
  "inding": 3247,
  "Ġpremises": 3248,
  "Ġvariants": 3249,
  "Ġevac": 3250,
  "Ġevidence": 3251,
  "Ġrepresents": 3252,
  "Ġabst": 3253,
  "Ġagree": 3254,
  "Ġagreed": 3255,
  "Ġaggreg": 3256,
  "Ġoperators": 3257,
  "Ġemissions": 3258,
  "ĠWe": 3259,
  "Ġdouble": 3260,
  "Ġassistants": 3261,
  "Ġbox": 3262,
  "ĠOctober": 3263,
  "ishing": 3264,
  "Ġalgorithmic": 3265,
  "Ġauto": 3266,
  "Ġsimpl": 3267,
  "Ġsimple": 3268,
  "aussian": 3269,
  "Ġproducing": 3270,
  "Ġdefine": 3271,
  "Ġdefines": 3272,
  "Ġsubse": 3273,
  "Ġregard": 3274,
  "obile": 3275,
  "Ġincreases": 3276,
  "Ġpatients": 3277,
  "Ġeffici": 3278,
  "Ġproving": 3279,
  "everal": 3280,
  "Ġweap": 3281,
  "ĠAlan": 3282,
  "ĠAlso": 3283,
  "Ġexpert": 3284,
  "babilistic": 3285,
  "ĠStuart": 3286,
  "Ġexplan": 3287,
  "ournal": 3288,
  "Ġrace": 3289,
  "Ġracist": 3290,
  "Ġattack": 3291,
  "Ġattention": 3292,
  "Ġoptimisation": 3293,
  "Ġformat": 3294,
  "Ġspecifically": 3295,
  "Ġyield": 3296,
  "Ġextract": 3297,
  "Ġextended": 3298,
  "connect": 3299,
  "Ġpowerful": 3300,
  "Ġeffectively": 3301,
  "Ġmedia": 3302,
  "Ġhandwrit": 3303,
  "Ġinteger": 3304,
  "Ġserious": 3305,
  "Ġshown": 3306,
  "Ġcorrespon": 3307,
  "Ġprevent": 3308,
  "Ġscenari": 3309,
  "Ġenvironmental": 3310,
  "Ġcentral": 3311,
  "Ġelectr": 3312,
  "Ġcompany": 3313,
  "Ġdiscovered": 3314,
  "Ġpoint": 3315,
  "Ġadvances": 3316,
  "Ġadvanced": 3317,
  "Ġsurpass": 3318,
  "Ġargues": 3319,
  "Ġdifficulty": 3320,
  "Ġwidespre": 3321,
  "Ġexistential": 3322,
  "Ġfinite": 3323,
  "ĠAmeric": 3324,
  "Ġexecution": 3325,
  "Ġchange": 3326,
  "Ġautomated": 3327,
  "Ġachieving": 3328,
  "Ġassigns": 3329,
  "Ġintegration": 3330,
  "Ġsimilarity": 3331,
  "Ġsentences": 3332,
  "Ġposition": 3333,
  "Ġdictionaries": 3334,
  "Ġfacial": 3335,
  "Ġloop": 3336,
  "Ġsomething": 3337,
  "Ġreceived": 3338,
  "Ġneeds": 3339,
  "Ġassociation": 3340,
  "Ġtransformers": 3341,
  "Ġsmaller": 3342,
  "what": 3343,
  "Ġvideos": 3344,
  "Ġadded": 3345,
  "parse": 3346,
  "Ġcriticism": 3347,
  "Ġeasy": 3348,
  "Ġinterpretation": 3349,
  "Ġsaid": 3350,
  "Ġsafety": 3351,
  "Ġframeworks": 3352,
  "playing": 3353,
  "Ġparameter": 3354,
  "Ġamount": 3355,
  "uido": 3356,
  "Ġelimin": 3357,
  "Ġbasis": 3358,
  "Ġstarted": 3359,
  "ĠEng": 3360,
  "ĠWhen": 3361,
  "Ġbecoming": 3362,
  "Ġprinciples": 3363,
  "Ġmaterial": 3364,
  "Ġgraphics": 3365,
  "Ġsuccessfully": 3366,
  "...": 3367,
  "olec": 3368,
  "Ġfloating": 3369,
  "Ġcompetitive": 3370,
  "Ġdatabases": 3371,
  "Ġperceptrons": 3372,
  "Ġauthors": 3373,
  "Ġsemantic": 3374,
  "Ġcategories": 3375,
  "Ġhypothes": 3376,
  "Ġhypothesis": 3377,
  "Ġdeployed": 3378,
  "Ġstrategy": 3379,
  "Ġstrategies": 3380,
  "Ġdefinition": 3381,
  "Ġpossibly": 3382,
  "Ġpossibility": 3383,
  "Ġsurveillance": 3384,
  "Ġelements": 3385,
  "Ġprofessional": 3386,
  "Ġmaximize": 3387,
  "Ġgrowth": 3388,
  "Ġneurosci": 3389,
  "Ġimplicit": 3390,
  "arency": 3391,
  "Ġdiseases": 3392,
  "Ġconsciousness": 3393,
  "Ġemotion": 3394,
  "Ġdiscussions": 3395,
  "Ġreturns": 3396,
  "known": 3397,
  "Ġpractical": 3398,
  "Ġdigits": 3399,
  "Ġfrequently": 3400,
  "Ġlegal": 3401,
  "Ġnecessary": 3402,
  "Ġcomplet": 3403,
  "ĠModern": 3404,
  "Ġspeaker": 3405,
  "Ġadaptive": 3406,
  "Ġaccurate": 3407,
  "tuned": 3408,
  "related": 3409,
  "Ġcopyright": 3410,
  "Ġannotations": 3411,
  "Ġanomaly": 3412,
  "Ġsuggest": 3413,
  "Ġadjust": 3414,
  "Ġeventually": 3415,
  "Ġdetermine": 3416,
  "Ġestablished": 3417,
  "Ġpolynomial": 3418,
  "ĠChatGPT": 3419,
  "Ġconstraints": 3420,
  "Ġfalse": 3421,
  "Ġhappen": 3422,
  "Ġadopted": 3423,
  "Ġadvertising": 3424,
  "Ġbioinformatics": 3425,
  "allucin": 3426,
  "ĠExamples": 3427,
  "Ġhundred": 3428,
  "Ġprotein": 3429,
  "Ġbytecode": 3430,
  "ĠBoltzmann": 3431,
  "ĠEnergy": 3432,
  "ĠTIMIT": 3433,
  "ĠTAMER": 3434,
  "Ġimpossible": 3435,
  "ĠJava": 3436,
  "ĠJÃ¼rgen": 3437,
  "Ġefficiency": 3438,
  "Ġwidespread": 3439,
  "\":": 3440,
  "\"),": 3441,
  "'t": 3442,
  "14": 3443,
  "15": 3444,
  "22": 3445,
  "25": 3446,
  "200": 3447,
  "={": 3448,
  "Ad": 3449,
  "AGI": 3450,
  "Bi": 3451,
  "Ch": 3452,
  "CPython": 3453,
  "CNNs": 3454,
  "Class": 3455,
  "DD": 3456,
  "DNNs": 3457,
  "For": 3458,
  "GPUs": 3459,
  "GAN": 3460,
  "HDL": 3461,
  "MP": 3462,
  "Many": 3463,
  "NIST": 3464,
  "OMP": 3465,
  "PI": 3466,
  "Research": 3467,
  "SDE": 3468,
  "Tub": 3469,
  "ZA": 3470,
  "ba": 3471,
  "bor": 3472,
  "bar": 3473,
  "cil": 3474,
  "care": 3475,
  "cover": 3476,
  "dependent": 3477,
  "eas": 3478,
  "efore": 3479,
  "fli": 3480,
  "found": 3481,
  "fakes": 3482,
  "gs": 3483,
  "gence": 3484,
  "he": 3485,
  "him": 3486,
  "hop": 3487,
  "here": 3488,
  "hand": 3489,
  "iate": 3490,
  "iations": 3491,
  "kus": 3492,
  "kers": 3493,
  "la": 3494,
  "ler": 3495,
  "lies": 3496,
  "metic": 3497,
  "oid": 3498,
  "oice": 3499,
  "pal": 3500,
  "part": 3501,
  "power": 3502,
  "patible": 3503,
  "rated": 3504,
  "rang": 3505,
  "ruff": 3506,
  "seen": 3507,
  "syn": 3508,
  "tect": 3509,
  "trol": 3510,
  "uit": 3511,
  "uel": 3512,
  "urom": 3513,
  "uits": 3514,
  "ukus": 3515,
  "ven": 3516,
  "vig": 3517,
  "vid": 3518,
  "zero": 3519,
  "Ġ%": 3520,
  "Ġ&": 3521,
  "ĠQ": 3522,
  "Ġ[": 3523,
  "Ġess": 3524,
  "Ġ//": 3525,
  "iness": 3526,
  "inspired": 3527,
  "insky": 3528,
  "Ġtend": 3529,
  "Ġaway": 3530,
  "Ġaffect": 3531,
  "ony": 3532,
  "ones": 3533,
  "aten": 3534,
  "atform": 3535,
  "atforms": 3536,
  "enetic": 3537,
  "orth": 3538,
  "orill": 3539,
  "orph": 3540,
  "orvig": 3541,
  "Ġsk": 3542,
  "Ġsect": 3543,
  "Ġspect": 3544,
  "Ġscal": 3545,
  "eds": 3546,
  "alysis": 3547,
  "Ġcle": 3548,
  "Ġcause": 3549,
  "Ġcapt": 3550,
  "Ġcats": 3551,
  "ione": 3552,
  "Ġtheories": 3553,
  "iting": 3554,
  "itig": 3555,
  "itarian": 3556,
  "isp": 3557,
  "isms": 3558,
  "Ġinductive": 3559,
  "Ġinnov": 3560,
  "Ġpict": 3561,
  "Ġpie": 3562,
  "Ġpick": 3563,
  "Ġpione": 3564,
  "anuary": 3565,
  "Ġmid": 3566,
  "Ġmarks": 3567,
  "Ġmobile": 3568,
  "Ġbrow": 3569,
  "Ġbillion": 3570,
  "Ġdays": 3571,
  "Ġfile": 3572,
  "Ġfall": 3573,
  "Ġfiction": 3574,
  "rogra": 3575,
  "Ġwon": 3576,
  "Ġwar": 3577,
  "Ġwors": 3578,
  "Ġtook": 3579,
  "asion": 3580,
  "asts": 3581,
  "chived": 3582,
  "entral": 3583,
  "eli": 3584,
  "elm": 3585,
  "eless": 3586,
  "Ġnormal": 3587,
  "eta": 3588,
  "eter": 3589,
  "etect": 3590,
  "ctors": 3591,
  "Ġhost": 3592,
  "Ġhouse": 3593,
  "Ġhistor": 3594,
  "Ġlin": 3595,
  "there": 3596,
  "thma": 3597,
  "ray": 3598,
  "ceive": 3599,
  "ĠAct": 3600,
  "ĠANNs": 3601,
  "ĠAccording": 3602,
  "Ġpropag": 3603,
  "urts": 3604,
  "urons": 3605,
  "uristic": 3606,
  "Ġbeat": 3607,
  "ulative": 3608,
  "step": 3609,
  "Ġdeb": 3610,
  "Ġdeception": 3611,
  "ithmetic": 3612,
  "Ġaspect": 3613,
  "Ġasthma": 3614,
  "Ġ(\"": 3615,
  "Ġmap": 3616,
  "Ġmaint": 3617,
  "Ġcomes": 3618,
  "Ġforward": 3619,
  "Ġgorill": 3620,
  "emble": 3621,
  "employ": 3622,
  "ĠPr": 3623,
  "Ġconvin": 3624,
  "Ġconventional": 3625,
  "Ġexp": 3626,
  "Ġexternal": 3627,
  "Ġexhib": 3628,
  "Ġalone": 3629,
  "Ġalpha": 3630,
  "Ġnearly": 3631,
  "Ġstable": 3632,
  "Ġintr": 3633,
  "amp": 3634,
  "ĠIB": 3635,
  "Ġwhy": 3636,
  "Ġwhose": 3637,
  "Ġ21": 3638,
  "otos": 3639,
  "Ġvast": 3640,
  "Ġmodule": 3641,
  "Ġimit": 3642,
  "oper": 3643,
  "ivari": 3644,
  "Ġcancer": 3645,
  "ĠCodon": 3646,
  "Ġunre": 3647,
  "Ġunknown": 3648,
  "Ġunseen": 3649,
  "Ġunemploy": 3650,
  "ĠSe": 3651,
  "ĠSw": 3652,
  "ĠSam": 3653,
  "ĠSearch": 3654,
  "ĠSVM": 3655,
  "quent": 3656,
  "pling": 3657,
  "ĠML": 3658,
  "ĠMcC": 3659,
  "ĠMNIST": 3660,
  "ĠMinsky": 3661,
  "ĠMeta": 3662,
  "ĠInter": 3663,
  "ĠIntern": 3664,
  "acing": 3665,
  "ude": 3666,
  "Ġ11": 3667,
  "Ġ16": 3668,
  "Ġ100": 3669,
  "Ġarray": 3670,
  "Ġapply": 3671,
  "plete": 3672,
  "eneral": 3673,
  "Ġclaus": 3674,
  "ĠGlobal": 3675,
  "ĠGAN": 3676,
  "ĠGuido": 3677,
  "ĠGeneral": 3678,
  "ĠDo": 3679,
  "ĠDes": 3680,
  "ĠDis": 3681,
  "ĠRes": 3682,
  "ĠRNNs": 3683,
  "ĠRosen": 3684,
  "ĠRussell": 3685,
  "Ġnotions": 3686,
  "aching": 3687,
  "Ġcomputations": 3688,
  "ried": 3689,
  "ensive": 3690,
  "ugust": 3691,
  "Ġcontest": 3692,
  "Ġcontrib": 3693,
  "arious": 3694,
  "Ġenable": 3695,
  "Ġenough": 3696,
  "Ġenhance": 3697,
  "ĠFe": 3698,
  "ĠFukus": 3699,
  "ffic": 3700,
  "ĠBl": 3701,
  "Ġchain": 3702,
  "Ġchance": 3703,
  "Ġchosen": 3704,
  "Ġchamp": 3705,
  "ĠNet": 3706,
  "ĠNations": 3707,
  "ĠNumPy": 3708,
  "ĠNvid": 3709,
  "ĠNorvig": 3710,
  "Ġtrick": 3711,
  "Ġtruth": 3712,
  "Ġmanner": 3713,
  "Ġmanifold": 3714,
  "ĠEU": 3715,
  "ĠEuropean": 3716,
  "ĠELI": 3717,
  "Ġclassify": 3718,
  "ĠHeb": 3719,
  "ĠHorn": 3720,
  "Ġoutlier": 3721,
  "Ġoutperform": 3722,
  "Ġfeas": 3723,
  "Ġ2011": 3724,
  "Ġintermed": 3725,
  "Ġdisplay": 3726,
  "Ġdevelopments": 3727,
  "onsense": 3728,
  "Ġsequence": 3729,
  "ypes": 3730,
  "Ġapproval": 3731,
  "Ġdesired": 3732,
  "ĠJulia": 3733,
  "ĠJanuary": 3734,
  "Ġpredic": 3735,
  "apse": 3736,
  "bert": 3737,
  "Ġevolution": 3738,
  "usters": 3739,
  "Ġpredicted": 3740,
  "ecause": 3741,
  "Ġbiology": 3742,
  "ternative": 3743,
  "Ġgood": 3744,
  "ĠWar": 3745,
  "ĠWorld": 3746,
  "Ġstrings": 3747,
  "phabet": 3748,
  "Ġanalys": 3749,
  "Ġtransl": 3750,
  "Ġtransfer": 3751,
  "Ġboom": 3752,
  "Ġbound": 3753,
  "exts": 3754,
  "Ġsolved": 3755,
  "Ġcommonsense": 3756,
  "Ġphone": 3757,
  "Ġrelative": 3758,
  "Ġrelatively": 3759,
  "aken": 3760,
  "aves": 3761,
  "avid": 3762,
  "Ġsimulate": 3763,
  "Ġovercome": 3764,
  "Ġgeneralisation": 3765,
  "Ġactually": 3766,
  "Ġrounding": 3767,
  "Ġregulation": 3768,
  "Ġregulatory": 3769,
  "obser": 3770,
  "ressor": 3771,
  "Ġdiscre": 3772,
  "Ġpatch": 3773,
  "Ġhighly": 3774,
  "Ġhighlight": 3775,
  "Ġweather": 3776,
  "Ġprogrammed": 3777,
  "Ġdifference": 3778,
  "Ġcourts": 3779,
  "Ġmostly": 3780,
  "Ġjud": 3781,
  "Ġjoint": 3782,
  "Ġoptional": 3783,
  "Ġprim": 3784,
  "Ġobjectives": 3785,
  "Ġmultiplic": 3786,
  "Ġsearches": 3787,
  "Ġidentification": 3788,
  "Ġcoll": 3789,
  "Ġexplo": 3790,
  "Ġparalle": 3791,
  "Ġexpressed": 3792,
  "Ġraw": 3793,
  "Ġcompiled": 3794,
  "Ġcompilers": 3795,
  "Ġoptimal": 3796,
  "Ġtravel": 3797,
  "ĠAnalysis": 3798,
  "Ġformal": 3799,
  "Ġspecified": 3800,
  "ĠUnion": 3801,
  "Ġdescript": 3802,
  "Ġcreate": 3803,
  "Ġprobabilities": 3804,
  "Ġextrem": 3805,
  "control": 3806,
  "ociation": 3807,
  "Ġtherefore": 3808,
  "Ġminor": 3809,
  "ibility": 3810,
  "Ġcapac": 3811,
  "Ġbrains": 3812,
  "Ġconcaten": 3813,
  "Ġfactors": 3814,
  "Ġnovel": 3815,
  "Ġequival": 3816,
  "Ġbeings": 3817,
  "Ġinfrast": 3818,
  "Ġmedic": 3819,
  "Ġbelow": 3820,
  "Ġbelong": 3821,
  "Ġintegers": 3822,
  "Ġfounded": 3823,
  "ĠPropos": 3824,
  "loch": 3825,
  "load": 3826,
  "Ġwriting": 3827,
  "defined": 3828,
  "oves": 3829,
  "Ġapproximately": 3830,
  "ounced": 3831,
  "Ġcenter": 3832,
  "Ġelectronic": 3833,
  "Ġcontaining": 3834,
  "Ġdiscovering": 3835,
  "198": 3836,
  "ĠVan": 3837,
  "Ġ2008": 3838,
  "Ġadvance": 3839,
  "Ġcommonly": 3840,
  "Ġsimilarly": 3841,
  "ommendation": 3842,
  "Ġfinds": 3843,
  "Ġfinding": 3844,
  "Ġrobotics": 3845,
  "compatible": 3846,
  "mming": 3847,
  "Ġpopulation": 3848,
  "Ġmembers": 3849,
  "ĠYou": 3850,
  "Ġfinal": 3851,
  "Ġwhole": 3852,
  "Ġchanging": 3853,
  "Ġchanges": 3854,
  "Ġautomation": 3855,
  "Ġphysics": 3856,
  "Ġtermed": 3857,
  "Ġbelieve": 3858,
  "ssociation": 3859,
  "Ġevaluate": 3860,
  "Ġplayer": 3861,
  "Ġlabeled": 3862,
  "Ġestimation": 3863,
  "Ġtargets": 3864,
  "Ġfaces": 3865,
  "Ġfacilit": 3866,
  "Ġwords": 3867,
  "Ġsymbol": 3868,
  "Ġsymbols": 3869,
  "Ġrecommendation": 3870,
  "Ġsense": 3871,
  "Ġsensors": 3872,
  "Ġtheorem": 3873,
  "Ġinfluence": 3874,
  "Ġinfluential": 3875,
  "Ġinfluenced": 3876,
  "Ġengineers": 3877,
  "Reinforcement": 3878,
  "References": 3879,
  "where": 3880,
  "Ġretrie": 3881,
  "Ġsuperintelligence": 3882,
  "Ġoriginally": 3883,
  "Ġaddress": 3884,
  "Ġattempts": 3885,
  "2015": 3886,
  "Ġfollowed": 3887,
  "Stat": 3888,
  "vention": 3889,
  "Ġproperty": 3890,
  "ĠPhotos": 3891,
  "Ġcorrect": 3892,
  "Ġgovernments": 3893,
  "black": 3894,
  "blatt": 3895,
  "blah": 3896,
  "Ġedges": 3897,
  "Ġreading": 3898,
  "Ġreadability": 3899,
  "Ġresponse": 3900,
  "Ġassume": 3901,
  "ĠAlphaGo": 3902,
  "Ġelse": 3903,
  "Ġcyber": 3904,
  "Ġcycle": 3905,
  "Ġpresented": 3906,
  "Ġfilters": 3907,
  "Ġstarting": 3908,
  "Ġchoices": 3909,
  "Ġclassifiers": 3910,
  "Ġfeedback": 3911,
  "ĠTranslate": 3912,
  "Ġemployment": 3913,
  "Ġprincipal": 3914,
  "Ġexecutes": 3915,
  "olean": 3916,
  "informed": 3917,
  "Ġdeliver": 3918,
  "Ġfloor": 3919,
  "Ġgroups": 3920,
  "Ġcomponents": 3921,
  "Ġcompetition": 3922,
  "Ġcollected": 3923,
  "Ġuncertainty": 3924,
  "Ġcategory": 3925,
  "Ġutility": 3926,
  "Ġharmful": 3927,
  "Ġliteral": 3928,
  "ĠApproach": 3929,
  "Ġdeployment": 3930,
  "ĠIndex": 3931,
  "Ġrespectively": 3932,
  "Ġefficiently": 3933,
  "Ġrarely": 3934,
  "Ġobservation": 3935,
  "Ġsurvey": 3936,
  "Ġcontinuous": 3937,
  "Ġdemonstrated": 3938,
  "Ġannounced": 3939,
  "Ġanti": 3940,
  "Ġdocument": 3941,
  "Ġdocumentation": 3942,
  "Ġreview": 3943,
  "ĠArchived": 3944,
  "Ġimplications": 3945,
  "ĠComputational": 3946,
  "Ġinteractions": 3947,
  "Ġdisease": 3948,
  "Ġscientific": 3949,
  "Ġscientists": 3950,
  "Ġdiagnosis": 3951,
  "Supervised": 3952,
  "generated": 3953,
  "mitted": 3954,
  "Ġthinking": 3955,
  "inguish": 3956,
  "Ġmental": 3957,
  "Ġoffers": 3958,
  "Ġeconomics": 3959,
  "Ġbeginning": 3960,
  "ilitary": 3961,
  "ĠCommission": 3962,
  "ĠSimil": 3963,
  "ĠDifferent": 3964,
  "ĠDiffusion": 3965,
  "Ġchatbots": 3966,
  "Ġchallenges": 3967,
  "Ġobtaining": 3968,
  "Ġconsumption": 3969,
  "Ġincremented": 3970,
  "Ġexplicitly": 3971,
  "Ġlooking": 3972,
  "Ġtuple": 3973,
  "encod": 3974,
  "Ġswarm": 3975,
  "Ġcaused": 3976,
  "Ġmicrocontrol": 3977,
  "Ġbenefit": 3978,
  "Ġforec": 3979,
  "Ġlaunched": 3980,
  "ĠPerl": 3981,
  "Ġsufficiently": 3982,
  "Ġcomprehensions": 3983,
  "Ġimmutable": 3984,
  "ĠMachin": 3985,
  "ĠInstitute": 3986,
  "Ġprecision": 3987,
  "Ġstrongly": 3988,
  "Ġanalogous": 3989,
  "Ġtransparency": 3990,
  "Ġparadigms": 3991,
  "Ġsparse": 3992,
  "ĠAndrew": 3993,
  "ĠChina": 3994,
  "Ġdominant": 3995,
  "Ġseparate": 3996,
  "Applications": 3997,
  "Generative": 3998,
  "Learning": 3999,
  "Unsupervised": 4000,
  "solving": 4001,
  "Ġcircuits": 4002,
  "Ġpaths": 4003,
  "Ġpixels": 4004,
  "Ġbenchmark": 4005,
  "Ġdestro": 4006,
  "Ġfraud": 4007,
  "Ġwatching": 4008,
  "Ġofficial": 4009,
  "Ġremain": 4010,
  "Ġearlier": 4011,
  "emporal": 4012,
  "Ġexponentially": 4013,
  "ograph": 4014,
  "Ġreconstruction": 4015,
  "Ġacquisition": 4016,
  "Ġconsequence": 4017,
  "Ġcollaboration": 4018,
  "Ġupdates": 4019,
  "Ġautomatically": 4020,
  "Ġarticle": 4021,
  "Ġdisciplines": 4022,
  "Feature": 4023,
  "clips": 4024,
  "crafted": 4025,
  "ructure": 4026,
  "target": 4027,
  "Ġculture": 4028,
  "Ġpsych": 4029,
  "Ġburden": 4030,
  "Ġcomparison": 4031,
  "Ġvarying": 4032,
  "ĠSystems": 4033,
  "plainable": 4034,
  "Ġincomplete": 4035,
  "gorithmic": 4036,
  "Ġkernel": 4037,
  "Ġexplanation": 4038,
  "Ġscenarios": 4039,
  "Ġelectrical": 4040,
  "ĠEnglish": 4041,
  "olecules": 4042,
  "Ġneuroscience": 4043,
  "Ġcompletely": 4044,
  "allucinations": 4045,
  "OMPAS": 4046,
  "Tube": 4047,
  "flix": 4048,
  "hima": 4049,
  "party": 4050,
  "Ġworse": 4051,
  "Ġhousehold": 4052,
  "Ġmaintain": 4053,
  "ivariate": 4054,
  "Ġunemployment": 4055,
  "ĠInternet": 4056,
  "ĠRosenblatt": 4057,
  "ĠFukushima": 4058,
  "ĠNvidia": 4059,
  "ĠELIZA": 4060,
  "ĠHebb": 4061,
  "Ġintermediate": 4062,
  "Ġparallel": 4063,
  "Ġequivalent": 4064,
  "Ġinfrastructure": 4065,
  "Ġfacilitate": 4066,
  "Ġretrieval": 4067,
  "Ġmicrocontrollers": 4068,
  "'re": 4069,
  "32": 4070,
  "58": 4071,
  "70": 4072,
  "AR": 4073,
  "AT": 4074,
  "At": 4075,
  "ANNs": 4076,
  "Association": 4077,
  "BC": 4078,
  "CL": 4079,
  "Data": 4080,
  "EA": 4081,
  "ET": 4082,
  "Eth": 4083,
  "Early": 4084,
  "Fin": 4085,
  "Fold": 4086,
  "Further": 4087,
  "Hard": 4088,
  "Hub": 4089,
  "ID": 4090,
  "IP": 4091,
  "It": 4092,
  "IME": 4093,
  "JEE": 4094,
  "KDD": 4095,
  "LL": 4096,
  "LSTM": 4097,
  "Mult": 4098,
  "Most": 4099,
  "Micro": 4100,
  "No": 4101,
  "Natural": 4102,
  "OC": 4103,
  "Per": 4104,
  "RI": 4105,
  "RNN": 4106,
  "Reg": 4107,
  "Rule": 4108,
  "Russell": 4109,
  "Robot": 4110,
  "Sim": 4111,
  "SVM": 4112,
  "Several": 4113,
  "Techn": 4114,
  "Trans": 4115,
  "Tensor": 4116,
  "With": 4117,
  "Zero": 4118,
  "ai": 4119,
  "aut": 4120,
  "ares": 4121,
  "ault": 4122,
  "bi": 4123,
  "bon": 4124,
  "bage": 4125,
  "bound": 4126,
  "cies": 4127,
  "clic": 4128,
  "cape": 4129,
  "collar": 4130,
  "dle": 4131,
  "day": 4132,
  "dinary": 4133,
  "ef": 4134,
  "eering": 4135,
  "from": 4136,
  "fact": 4137,
  "go": 4138,
  "get": 4139,
  "gment": 4140,
  "good": 4141,
  "gether": 4142,
  "hik": 4143,
  "ior": 4144,
  "iol": 4145,
  "ios": 4146,
  "iable": 4147,
  "ipped": 4148,
  "ihik": 4149,
  "ka": 4150,
  "ko": 4151,
  "log": 4152,
  "lict": 4153,
  "last": 4154,
  "mal": 4155,
  "mod": 4156,
  "mach": 4157,
  "mits": 4158,
  "ners": 4159,
  "num": 4160,
  "ove": 4161,
  "pur": 4162,
  "pig": 4163,
  "pil": 4164,
  "pir": 4165,
  "pace": 4166,
  "ror": 4167,
  "rong": 4168,
  "rules": 4169,
  "sh": 4170,
  "sign": 4171,
  "self": 4172,
  "site": 4173,
  "tal": 4174,
  "tic": 4175,
  "tact": 4176,
  "tember": 4177,
  "uce": 4178,
  "uplic": 4179,
  "vous": 4180,
  "vari": 4181,
  "win": 4182,
  "wen": 4183,
  "wise": 4184,
  "ying": 4185,
  "}}": 4186,
  "Ġ_": 4187,
  "Ġi": 4188,
  "Ġx": 4189,
  "Ġâ": 4190,
  "Ġir": 4191,
  "Ġult": 4192,
  "Ġill": 4193,
  "Ġ60": 4194,
  "Ġ...": 4195,
  "Ġzero": 4196,
  "ino": 4197,
  "iny": 4198,
  "inal": 4199,
  "inct": 4200,
  "inator": 4201,
  "Ġtag": 4202,
  "Ġtended": 4203,
  "Ġtakes": 4204,
  "Ġtaken": 4205,
  "Ġaver": 4206,
  "onics": 4207,
  "erry": 4208,
  "ervous": 4209,
  "Ġthings": 4210,
  "Ġthesis": 4211,
  "Ġthreat": 4212,
  "reen": 4213,
  "rele": 4214,
  "rect": 4215,
  "enko": 4216,
  "orge": 4217,
  "orrow": 4218,
  "Ġslic": 4219,
  "Ġsizes": 4220,
  "edy": 4221,
  "edded": 4222,
  "aling": 4223,
  "Ġcum": 4224,
  "Ġcust": 4225,
  "Ġclear": 4226,
  "Ġcaught": 4227,
  "arth": 4228,
  "arms": 4229,
  "arge": 4230,
  "arry": 4231,
  "arvin": 4232,
  "arbage": 4233,
  "ital": 4234,
  "itts": 4235,
  "itable": 4236,
  "itory": 4237,
  "itivity": 4238,
  "itHub": 4239,
  "isk": 4240,
  "isory": 4241,
  "isually": 4242,
  "Ġinverse": 4243,
  "Ġpun": 4244,
  "ancies": 4245,
  "Ġmist": 4246,
  "Ġmyp": 4247,
  "Ġmix": 4248,
  "Ġmillions": 4249,
  "Ġmitig": 4250,
  "Ġmolecules": 4251,
  "Ġanything": 4252,
  "Ġbar": 4253,
  "Ġbus": 4254,
  "Ġbug": 4255,
  "Ġbase": 4256,
  "Ġbillions": 4257,
  "Ġborrow": 4258,
  "Ġdens": 4259,
  "Ġdollar": 4260,
  "Ġduplic": 4261,
  "Ġfl": 4262,
  "Ġfam": 4263,
  "Ġface": 4264,
  "Ġfash": 4265,
  "roid": 4266,
  "rote": 4267,
  "Ġwide": 4268,
  "Ġwelf": 4269,
  "Ġwave": 4270,
  "Ġwrong": 4271,
  "Ġwrote": 4272,
  "Ġtoken": 4273,
  "Ġtogether": 4274,
  "ask": 4275,
  "eled": 4276,
  "Ġna": 4277,
  "Ġnerve": 4278,
  "Ġnervous": 4279,
  "Ġrep": 4280,
  "Ġrely": 4281,
  "Ġreject": 4282,
  "Ġrepro": 4283,
  "Ġrevolution": 4284,
  "etal": 4285,
  "etary": 4286,
  "omin": 4287,
  "oming": 4288,
  "used": 4289,
  "Ġeight": 4290,
  "Ġeclips": 4291,
  "Ġhy": 4292,
  "Ġhence": 4293,
  "Ġharms": 4294,
  "Ġline": 4295,
  "Ġland": 4296,
  "Ġlists": 4297,
  "Ġlock": 4298,
  "Ġlaz": 4299,
  "Ġlingu": 4300,
  "imov": 4301,
  "imination": 4302,
  "theless": 4303,
  "rab": 4304,
  "rac": 4305,
  "rad": 4306,
  "Ġlet": 4307,
  "Ġlets": 4308,
  "Ġleft": 4309,
  "cember": 4310,
  "unctions": 4311,
  "unihik": 4312,
  "ĠAward": 4313,
  "ĠAugust": 4314,
  "ĠABC": 4315,
  "ĠArab": 4316,
  "Ġproved": 4317,
  "Ġproof": 4318,
  "ury": 4319,
  "urations": 4320,
  "vector": 4321,
  "ulloch": 4322,
  "igu": 4323,
  "igurations": 4324,
  "stop": 4325,
  "stood": 4326,
  "ift": 4327,
  "ifted": 4328,
  "Ġdeg": 4329,
  "Ġdealing": 4330,
  "ild": 4331,
  "ils": 4332,
  "illy": 4333,
  "ilot": 4334,
  "ithread": 4335,
  "Ġmaps": 4336,
  "Ġcomment": 4337,
  "Ġcomedy": 4338,
  "Ġgives": 4339,
  "Ġgreat": 4340,
  "Ġgender": 4341,
  "Ġgarbage": 4342,
  "emi": 4343,
  "ĠPart": 4344,
  "ĠPark": 4345,
  "ĠPaper": 4346,
  "ĠPeter": 4347,
  "ĠPitts": 4348,
  "Ġsuperv": 4349,
  "Ġsupers": 4350,
  "Ġconj": 4351,
  "Ġconcept": 4352,
  "Ġconvers": 4353,
  "Ġconditional": 4354,
  "Ġconduct": 4355,
  "Ġexc": 4356,
  "Ġexists": 4357,
  "Ġalign": 4358,
  "Ġaltered": 4359,
  "Ġalternative": 4360,
  "Ġalphabet": 4361,
  "Ġnear": 4362,
  "Ġneigh": 4363,
  "abor": 4364,
  "Ġstated": 4365,
  "Ġstore": 4366,
  "Ġstream": 4367,
  "Ġintract": 4368,
  "Ġintended": 4369,
  "ĠIm": 4370,
  "ĠIts": 4371,
  "Ġwhites": 4372,
  "Ġcompens": 4373,
  "Ġcompile": 4374,
  "Ġcompressor": 4375,
  "Ġ26": 4376,
  "ĠThat": 4377,
  "ĠThink": 4378,
  "otation": 4379,
  "otypes": 4380,
  "Ġvoice": 4381,
  "Ġviol": 4382,
  "Ġvisually": 4383,
  "eptember": 4384,
  "Ġordinary": 4385,
  "ump": 4386,
  "osely": 4387,
  "iring": 4388,
  "irst": 4389,
  "Ġmodelling": 4390,
  "Ġimpl": 4391,
  "Ġimaging": 4392,
  "opfield": 4393,
  "opilot": 4394,
  "ellow": 4395,
  "ĠCar": 4396,
  "ĠCol": 4397,
  "ĠCurrent": 4398,
  "ĠCoun": 4399,
  "ĠClass": 4400,
  "ĠComp": 4401,
  "ĠCOMPAS": 4402,
  "ĠCopilot": 4403,
  "Ġunex": 4404,
  "Ġunlike": 4405,
  "ĠSir": 4406,
  "ĠSci": 4407,
  "ĠSpec": 4408,
  "ĠSparse": 4409,
  "ĠSeptember": 4410,
  "raining": 4411,
  "que": 4412,
  "quality": 4413,
  "plo": 4414,
  "placed": 4415,
  "Ġrig": 4416,
  "ĠMor": 4417,
  "ĠMan": 4418,
  "ĠMich": 4419,
  "ĠMarvin": 4420,
  "ĠTheir": 4421,
  "Ġsym": 4422,
  "acial": 4423,
  "Ġresol": 4424,
  "Ġrespon": 4425,
  "Ġarrang": 4426,
  "Ġarithmetic": 4427,
  "formance": 4428,
  "Ġclick": 4429,
  "Ġclusters": 4430,
  "ĠGT": 4431,
  "ĠGr": 4432,
  "ĠGiven": 4433,
  "ĠGaussian": 4434,
  "ĠGitHub": 4435,
  "ptions": 4436,
  "Ġdeepfakes": 4437,
  "ĠDan": 4438,
  "ĠDuring": 4439,
  "ĠDavid": 4440,
  "ĠRun": 4441,
  "ĠRep": 4442,
  "ĠRub": 4443,
  "ĠRobot": 4444,
  "ainting": 4445,
  "duction": 4446,
  "izen": 4447,
  "izations": 4448,
  "Ġnoted": 4449,
  "ignals": 4450,
  "ocks": 4451,
  "Ġgenerated": 4452,
  "Ġgenerates": 4453,
  "Ġgenerators": 4454,
  "Ġcompute": 4455,
  "riend": 4456,
  "Ġ1956": 4457,
  "Ġenh": 4458,
  "Ġenables": 4459,
  "Ġenorm": 4460,
  "ĠFramework": 4461,
  "ĠFurther": 4462,
  "ĠFran": 4463,
  "ĠBi": 4464,
  "ĠBen": 4465,
  "ĠBig": 4466,
  "ĠBSDE": 4467,
  "Ġchances": 4468,
  "arest": 4469,
  "ĠNg": 4470,
  "Ġperceive": 4471,
  "Ġtrust": 4472,
  "ackage": 4473,
  "ĠEarly": 4474,
  "Ġ32": 4475,
  "Ġ300": 4476,
  "ĠHopfield": 4477,
  "Ġkill": 4478,
  "Ġoutcome": 4479,
  "Ġinterf": 4480,
  "Ġintern": 4481,
  "Ġinterconnect": 4482,
  "Ġdecades": 4483,
  "Ġdecentral": 4484,
  "ĠLL": 4485,
  "ĠLi": 4486,
  "ĠLab": 4487,
  "ĠLaw": 4488,
  "ĠLanguage": 4489,
  "Ġdisplaced": 4490,
  "ĠTo": 4491,
  "ĠTur": 4492,
  "ĠTPUs": 4493,
  "ĠTypically": 4494,
  "onscious": 4495,
  "Ġseem": 4496,
  "Ġsequences": 4497,
  "Ġsegment": 4498,
  "yped": 4499,
  "ĠUK": 4500,
  "Ġacross": 4501,
  "Ġimprec": 4502,
  "Ġrecognizing": 4503,
  "ĠJames": 4504,
  "ĠJune": 4505,
  "Ġprefer": 4506,
  "sue": 4507,
  "support": 4508,
  "output": 4509,
  "ysical": 4510,
  "Ġshells": 4511,
  "Ġrepresenting": 4512,
  "Ġrepresentative": 4513,
  "Ġknows": 4514,
  "econd": 4515,
  "Ġsetting": 4516,
  "Ġconsists": 4517,
  "ief": 4518,
  "Ġbiom": 4519,
  "Ġoperates": 4520,
  "Ġemail": 4521,
  "Ġemulate": 4522,
  "Ġempir": 4523,
  "Ġcall": 4524,
  "Ġcalling": 4525,
  "ĠWill": 4526,
  "ĠWall": 4527,
  "ĠWeb": 4528,
  "ordance": 4529,
  "Ġperformed": 4530,
  "Ġdoub": 4531,
  "ups": 4532,
  "Ġboard": 4533,
  "Ġsupply": 4534,
  "Ġsound": 4535,
  "Ġplan": 4536,
  "Ġplace": 4537,
  "Ġplaces": 4538,
  "Ġplatforms": 4539,
  "Ġmultivariate": 4540,
  "Ġmultithread": 4541,
  "Ġtyped": 4542,
  "Ġtypical": 4543,
  "Ġcommand": 4544,
  "Ġphase": 4545,
  "aving": 4546,
  "Ġsimulated": 4547,
  "Ġsimply": 4548,
  "ĠGood": 4549,
  "eggs": 4550,
  "Ġaccordance": 4551,
  "Ġproduction": 4552,
  "Ġactual": 4553,
  "Ġdefe": 4554,
  "Ġdefense": 4555,
  "Ġdefault": 4556,
  "Ġsubfield": 4557,
  "Ġdiscrimin": 4558,
  "ique": 4559,
  "Ġindependent": 4560,
  "Ġweak": 4561,
  "ditionally": 4562,
  "Ġcover": 4563,
  "Ġcoord": 4564,
  "Ġmathematically": 4565,
  "ĠAlthough": 4566,
  "ifiers": 4567,
  "ifiable": 4568,
  "Ġexperi": 4569,
  "pected": 4570,
  "Ġworking": 4571,
  "Ġworkers": 4572,
  "Ġworkload": 4573,
  "ularity": 4574,
  "ularization": 4575,
  "Ġprun": 4576,
  "processing": 4577,
  "Ġversat": 4578,
  "ĠStandard": 4579,
  "Ġdesigners": 4580,
  "Ġcolor": 4581,
  "Ġexplored": 4582,
  "Ġexploratory": 4583,
  "Ġimproves": 4584,
  "ĠKnowledge": 4585,
  "ĠKunihik": 4586,
  "Ġquality": 4587,
  "Ġquotation": 4588,
  "Ġraise": 4589,
  "Ġcompiling": 4590,
  "Ġcompilation": 4591,
  "Ġattach": 4592,
  "volent": 4593,
  "Ġspam": 4594,
  "Ġspaces": 4595,
  "Ġrise": 4596,
  "called": 4597,
  "Ġtraffic": 4598,
  "Ġgradu": 4599,
  "ĠUnivers": 4600,
  "Ġyou": 4601,
  "Ġcreation": 4602,
  "Ġprobably": 4603,
  "Ġintroduction": 4604,
  "Ġ1982": 4605,
  "Ġ1985": 4606,
  "Ġ1986": 4607,
  "Ġ1988": 4608,
  "Ġ1989": 4609,
  "mbedded": 4610,
  "Ġcapability": 4611,
  "Ġblocks": 4612,
  "Ġdistinction": 4613,
  "Ġdistinguish": 4614,
  "Ġinterpreted": 4615,
  "Ġstudies": 4616,
  "Ġstudied": 4617,
  "Ġdifferently": 4618,
  "Ġdetecting": 4619,
  "Ġfoundation": 4620,
  "ĠProcessing": 4621,
  "ĠProlog": 4622,
  "Ġcorout": 4623,
  "Ġinstall": 4624,
  "Ġinstead": 4625,
  "Ġbehaviors": 4626,
  "ney": 4627,
  "Ġscruff": 4628,
  "Ġapproximator": 4629,
  "Ġconsidering": 4630,
  "Ġbuilding": 4631,
  "Ġcentury": 4632,
  "Ġheuristic": 4633,
  "Ġ2005": 4634,
  "Ġ2006": 4635,
  "Ġadvant": 4636,
  "onomous": 4637,
  "Ġissued": 4638,
  "Ġargum": 4639,
  "Ġargue": 4640,
  "Ġrobotic": 4641,
  "ilosopher": 4642,
  "Ġdifficulties": 4643,
  "comb": 4644,
  "comput": 4645,
  "Ġavoid": 4646,
  "Ġdivided": 4647,
  "Ġwidth": 4648,
  "Ġleaders": 4649,
  "Ġkeys": 4650,
  "ĠAmari": 4651,
  "Ġautomatic": 4652,
  "Ġreflect": 4653,
  "Ġcombine": 4654,
  "Ġcombined": 4655,
  "Ġevaluated": 4656,
  "Ġevaluates": 4657,
  "Ġlabeling": 4658,
  "Ġintegrate": 4659,
  "Ġsentence": 4660,
  "Ġsentience": 4661,
  "Ġsentiment": 4662,
  "Ġmisclass": 4663,
  "Ġrecommended": 4664,
  "Ġautonomy": 4665,
  "Ġfocusing": 4666,
  "Ġsensitive": 4667,
  "Ġsensitivity": 4668,
  "Ġdirect": 4669,
  "Ġdirection": 4670,
  "Ġreceive": 4671,
  "Ġhelps": 4672,
  "Ġmajority": 4673,
  "Ġneeded": 4674,
  "Ġcontinued": 4675,
  "Ġtransformations": 4676,
  "Ġmeasured": 4677,
  "Reilly": 4678,
  "which": 4679,
  "Ġcurrently": 4680,
  "Ġopening": 4681,
  "Ġrunning": 4682,
  "ĠGeorge": 4683,
  "Ġactivity": 4684,
  "Ġcounter": 4685,
  "Ġpublications": 4686,
  "Ġfollows": 4687,
  "Ġentire": 4688,
  "Ġcritical": 4689,
  "Ġeasier": 4690,
  "Ġdemand": 4691,
  "ĠPhD": 4692,
  "Ġinvested": 4693,
  "Ġetc": 4694,
  "Ġsteps": 4695,
  "playstyle": 4696,
  "Ġresponses": 4697,
  "Ġ1970": 4698,
  "Ġ1971": 4699,
  "Ġassumed": 4700,
  "Ġassumptions": 4701,
  "Ġcommunic": 4702,
  "Ġcommunities": 4703,
  "Ġworkshop": 4704,
  "Ġdepending": 4705,
  "Ġdependent": 4706,
  "Ġdependenc": 4707,
  "Ġbeliefs": 4708,
  "Ġcognition": 4709,
  "Ġinvolved": 4710,
  "Ġpreserve": 4711,
  "Ġfailed": 4712,
  "ĠAsimov": 4713,
  "Ġconflict": 4714,
  "Ġconfigurations": 4715,
  "Ġiteration": 4716,
  "Ġuniversities": 4717,
  "ĠReinforcement": 4718,
  "ĠEnhancement": 4719,
  "Ġembedded": 4720,
  "Ġprinciple": 4721,
  "Ġgraphical": 4722,
  "Ġexecutable": 4723,
  "Ġpersonal": 4724,
  "ski": 4725,
  "ĠXAI": 4726,
  "Ġdelay": 4727,
  "Ġwinter": 4728,
  "Ġwinning": 4729,
  "ĠAlexNet": 4730,
  "ĠCAA": 4731,
  "ĠNeurons": 4732,
  "Ġnumeric": 4733,
  "Ġattempting": 4734,
  "External": 4735,
  "Ġsocietal": 4736,
  "Ġdownstream": 4737,
  "Ġfitting": 4738,
  "Ġpromot": 4739,
  "Ġprompts": 4740,
  "ĠIndust": 4741,
  "Ġlargest": 4742,
  "Ġdefinitions": 4743,
  "Ġsubsets": 4744,
  "Ġindustrial": 4745,
  "Ġextension": 4746,
  "Ġextensive": 4747,
  "Ġhealthcare": 4748,
  "Ġdemonstrate": 4749,
  "ASR": 4750,
  "Ġaims": 4751,
  "Ġsample": 4752,
  "Ġsamples": 4753,
  "Ġsampling": 4754,
  "Ġinitially": 4755,
  "Ġpurpose": 4756,
  "Ġmeta": 4757,
  "Ġannual": 4758,
  "Ġneurobi": 4759,
  "ĠComputer": 4760,
  "Ġaccelerate": 4761,
  "Ġaccelerated": 4762,
  "Ġdiscussed": 4763,
  "Ġdiagnost": 4764,
  "displaystyle": 4765,
  "feel": 4766,
  "generating": 4767,
  "prietary": 4768,
  "Ġensure": 4769,
  "Ġensemble": 4770,
  "Ġcarbon": 4771,
  "Ġdeduce": 4772,
  "Ġnecessarily": 4773,
  "Ġvanishing": 4774,
  "ĠCommon": 4775,
  "ĠSimon": 4776,
  "Ġclaimed": 4777,
  "Ġencoding": 4778,
  "ffective": 4779,
  "Ġchallenging": 4780,
  "Ġaccurately": 4781,
  "Ġconnectionist": 4782,
  "1998": 4783,
  "Recent": 4784,
  "weight": 4785,
  "Ġtuples": 4786,
  "Ġswitch": 4787,
  "Ġcrossbar": 4788,
  "Ġopposed": 4789,
  "Ġmalware": 4790,
  "Ġforest": 4791,
  "Ġoffering": 4792,
  "Ġtopic": 4793,
  "Ġtowards": 4794,
  "Ġreached": 4795,
  "Ġlatter": 4796,
  "Ġleverage": 4797,
  "Ġcompositional": 4798,
  "Ġvalidated": 4799,
  "ĠMachines": 4800,
  "ĠInstead": 4801,
  "Ġclosely": 4802,
  "Ġclustering": 4803,
  "Ġcalculate": 4804,
  "Ġcalculated": 4805,
  "Ġparadigm": 4806,
  "Ġspars": 4807,
  "Ġtracking": 4808,
  "ĠAndroid": 4809,
  "ĠChinese": 4810,
  "Ġinvestigate": 4811,
  "print": 4812,
  "Ġaudio": 4813,
  "ederated": 4814,
  "Ġinherently": 4815,
  "Ġmoved": 4816,
  "Ġmechanism": 4817,
  "Ġderived": 4818,
  "Ġdraw": 4819,
  "Ġdeviations": 4820,
  "Ġgrid": 4821,
  "Ġguess": 4822,
  "ĠImageNet": 4823,
  "Ġvulnerabilities": 4824,
  "Ġundes": 4825,
  "ĠDecember": 4826,
  "Ġphotograph": 4827,
  "Ġdefendants": 4828,
  "Ġsubstantially": 4829,
  "Ġkeywords": 4830,
  "Ġfiltering": 4831,
  "Ġauthoritarian": 4832,
  "Ġemphasis": 4833,
  "Computational": 4834,
  "Model": 4835,
  "consid": 4836,
  "uzzy": 4837,
  "Ġtrendline": 4838,
  "represented": 4839,
  "ordered": 4840,
  "Ġcredit": 4841,
  "Ġmoral": 4842,
  "Ġmotiv": 4843,
  "Ġdimension": 4844,
  "Ġfundament": 4845,
  "Ġfixed": 4846,
  "Ġhope": 4847,
  "Ġconstructed": 4848,
  "Ġexceptions": 4849,
  "Ġitems": 4850,
  "Ġcandidate": 4851,
  "Ġunlabelled": 4852,
  "ĠSoft": 4853,
  "ĠMedia": 4854,
  "Ġincorpor": 4855,
  "Ġenabling": 4856,
  "ĠBoolean": 4857,
  "Ġsexual": 4858,
  "Ġappropriate": 4859,
  "Ġevacuation": 4860,
  "Ġautoencod": 4861,
  "Ġsimpler": 4862,
  "Ġsubsequent": 4863,
  "Ġweapons": 4864,
  "Ġhandwritten": 4865,
  "Ġcorrespond": 4866,
  "Ġsurpassing": 4867,
  "ĠAmericans": 4868,
  "Ġhypothesized": 4869,
  "Ġprofessionals": 4870,
  "Ġcopyrighted": 4871,
  "Ġsuggested": 4872,
  "ĠJavaScript": 4873,
  "covery": 4874,
  "founder": 4875,
  "powered": 4876,
  "tection": 4877,
  "uromorph": 4878,
  "ĠQwen": 4879,
  "Ġsector": 4880,
  "Ġinnovation": 4881,
  "Ġpictures": 4882,
  "Ġpiece": 4883,
  "Ġpioneer": 4884,
  "Ġfalls": 4885,
  "Ġhistorical": 4886,
  "Ġlinks": 4887,
  "Ġaspects": 4888,
  "ĠPrize": 4889,
  "ĠIBM": 4890,
  "Ġimitate": 4891,
  "ĠSamuel": 4892,
  "ĠMcCulloch": 4893,
  "Ġclauses": 4894,
  "ĠDespite": 4895,
  "ĠDiscovery": 4896,
  "Ġenhancements": 4897,
  "Ġchampion": 4898,
  "ĠNetflix": 4899,
  "Ġoutperformed": 4900,
  "Ġfeasible": 4901,
  "Ġdiscrete": 4902,
  "Ġpatches": 4903,
  "Ġhighlighted": 4904,
  "Ġjudg": 4905,
  "Ġmultiplication": 4906,
  "Ġcapacity": 4907,
  "ĠProposals": 4908,
  "ĠYouTube": 4909,
  "ĠSimilarly": 4910,
  "Ġforecasts": 4911,
  "ĠMachinery": 4912,
  "Hardware": 4913,
  "purpose": 4914,
  "pigenetic": 4915,
  "signal": 4916,
  "Ġcumulative": 4917,
  "Ġcustom": 4918,
  "Ġmypy": 4919,
  "Ġbusiness": 4920,
  "Ġborrowed": 4921,
  "Ġdensity": 4922,
  "Ġdollars": 4923,
  "Ġduplicating": 4924,
  "Ġfashion": 4925,
  "Ġwelfare": 4926,
  "Ġeclipsed": 4927,
  "ĠCouncil": 4928,
  "Ġresponding": 4929,
  "ĠRuby": 4930,
  "Ġenormous": 4931,
  "Ġinterconnected": 4932,
  "supported": 4933,
  "Ġmultithreading": 4934,
  "ĠKunihiko": 4935,
  "ĠUniversity": 4936,
  "Ġdependencies": 4937,
  "uromorphic": 4938,
  "\";": 4939,
  "%.": 4940,
  "')": 4941,
  "**": 4942,
  "+,": 4943,
  ",\"": 4944,
  "12": 4945,
  "16": 4946,
  "18": 4947,
  "2000": 4948,
  "33": 4949,
  "35": 4950,
  "46": 4951,
  "59": 4952,
  "73": 4953,
  "90": 4954,
  "=%": 4955,
  "==": 4956,
  "Aut": 4957,
  "AAI": 4958,
  "According": 4959,
  "Back": 4960,
  "BML": 4961,
  "Bayesian": 4962,
  "Before": 4963,
  "Because": 4964,
  "CM": 4965,
  "CS": 4966,
  "Cl": 4967,
  "Can": 4968,
  "Cython": 4969,
  "Crit": 4970,
  "DA": 4971,
  "DP": 4972,
  "Dif": 4973,
  "DNN": 4974,
  "Dec": 4975,
  "During": 4976,
  "Dream": 4977,
  "Dimensionality": 4978,
  "EO": 4979,
  "ER": 4980,
  "En": 4981,
  "European": 4982,
  "Embedded": 4983,
  "FD": 4984,
  "FG": 4985,
  "From": 4986,
  "Face": 4987,
  "Framework": 4988,
  "Formal": 4989,
  "Finding": 4990,
  "Federated": 4991,
  "GG": 4992,
  "GT": 4993,
  "Gra": 4994,
  "Game": 4995,
  "Given": 4996,
  "GMM": 4997,
  "Gaussian": 4998,
  "HF": 4999,
  "He": 5000,
  "Hid": 5001,
  "HMM": 5002,
  "Im": 5003,
  "ILP": 5004,
  "Just": 5005,
  "Jup": 5006,
  "Knowledge": 5007,
  "LU": 5008,
  "Lim": 5009,
  "Loc": 5010,
  "Language": 5011,
  "LHF": 5012,
  "Mo": 5013,
  "Ms": 5014,
  "Math": 5015,
  "Military": 5016,
  "NR": 5017,
  "On": 5018,
  "Over": 5019,
  "PA": 5020,
  "PR": 5021,
  "Pub": 5022,
  "Power": 5023,
  "PEP": 5024,
  "Res": 5025,
  "Rel": 5026,
  "Random": 5027,
  "Se": 5028,
  "Sh": 5029,
  "So": 5030,
  "Sy": 5031,
  "Search": 5032,
  "Sci": 5033,
  "Self": 5034,
  "Since": 5035,
  "Special": 5036,
  "Sources": 5037,
  "Sparse": 5038,
  "Semi": 5039,
  "To": 5040,
  "TPUs": 5041,
  "Typically": 5042,
  "UC": 5043,
  "Very": 5044,
  "Various": 5045,
  "WS": 5046,
  "Wh": 5047,
  "],": 5048,
  "aur": 5049,
  "aid": 5050,
  "app": 5051,
  "afer": 5052,
  "aks": 5053,
  "aust": 5054,
  "aware": 5055,
  "auth": 5056,
  "be": 5057,
  "bra": 5058,
  "bations": 5059,
  "bell": 5060,
  "bles": 5061,
  "bene": 5062,
  "bigu": 5063,
  "co": 5064,
  "cr": 5065,
  "cent": 5066,
  "cision": 5067,
  "cast": 5068,
  "crit": 5069,
  "cern": 5070,
  "cles": 5071,
  "comm": 5072,
  "crimin": 5073,
  "cOS": 5074,
  "da": 5075,
  "do": 5076,
  "dr": 5077,
  "dom": 5078,
  "dden": 5079,
  "detect": 5080,
  "eon": 5081,
  "ees": 5082,
  "eom": 5083,
  "equ": 5084,
  "eons": 5085,
  "elect": 5086,
  "eaper": 5087,
  "eously": 5088,
  "evalu": 5089,
  "fi": 5090,
  "fin": 5091,
  "fers": 5092,
  "fect": 5093,
  "fund": 5094,
  "fare": 5095,
  "fits": 5096,
  "flu": 5097,
  "fix": 5098,
  "fric": 5099,
  "function": 5100,
  "fellow": 5101,
  "ger": 5102,
  "gent": 5103,
  "gate": 5104,
  "gates": 5105,
  "gue": 5106,
  "ground": 5107,
  "gio": 5108,
  "gender": 5109,
  "hang": 5110,
  "high": 5111,
  "hard": 5112,
  "hart": 5113,
  "helm": 5114,
  "hallucinations": 5115,
  "iar": 5116,
  "iro": 5117,
  "iet": 5118,
  "iom": 5119,
  "iation": 5120,
  "ira": 5121,
  "ioms": 5122,
  "jo": 5123,
  "ker": 5124,
  "kets": 5125,
  "lus": 5126,
  "liv": 5127,
  "lator": 5128,
  "lash": 5129,
  "life": 5130,
  "mer": 5131,
  "mult": 5132,
  "math": 5133,
  "machine": 5134,
  "mark": 5135,
  "missions": 5136,
  "member": 5137,
  "nd": 5138,
  "nam": 5139,
  "normal": 5140,
  "narrow": 5141,
  "ox": 5142,
  "oes": 5143,
  "ool": 5144,
  "oore": 5145,
  "overs": 5146,
  "oising": 5147,
  "pi": 5148,
  "pin": 5149,
  "pus": 5150,
  "pst": 5151,
  "pam": 5152,
  "pred": 5153,
  "pared": 5154,
  "rd": 5155,
  "rm": 5156,
  "ring": 5157,
  "ras": 5158,
  "rist": 5159,
  "rug": 5160,
  "rase": 5161,
  "rgan": 5162,
  "rises": 5163,
  "sle": 5164,
  "sim": 5165,
  "sam": 5166,
  "since": 5167,
  "second": 5168,
  "tur": 5169,
  "ture": 5170,
  "tically": 5171,
  "tology": 5172,
  "tice": 5173,
  "trans": 5174,
  "txt": 5175,
  "typed": 5176,
  "uard": 5177,
  "uance": 5178,
  "uasion": 5179,
  "vive": 5180,
  "vable": 5181,
  "vak": 5182,
  "vious": 5183,
  "view": 5184,
  "vanced": 5185,
  "wal": 5186,
  "wan": 5187,
  "worth": 5188,
  "yes": 5189,
  "yter": 5190,
  "yHDL": 5191,
  "yclic": 5192,
  "zer": 5193,
  "||": 5194,
  "Ġ$": 5195,
  "Ġ.": 5196,
  "Ġ:": 5197,
  "Ġ>": 5198,
  "Ġ@": 5199,
  "Ġ{": 5200,
  "Ġid": 5201,
  "Ġign": 5202,
  "ĠâĢĶ": 5203,
  "ĨĴ": 5204,
  "ini": 5205,
  "inate": 5206,
  "inter": 5207,
  "input": 5208,
  "inder": 5209,
  "incompatible": 5210,
  "Ġtw": 5211,
  "Ġten": 5212,
  "Ġtit": 5213,
  "Ġtro": 5214,
  "Ġtun": 5215,
  "Ġtech": 5216,
  "Ġtens": 5217,
  "Ġtail": 5218,
  "Ġtax": 5219,
  "Ġtaking": 5220,
  "Ġtaught": 5221,
  "Ġtexts": 5222,
  "Ġtemporal": 5223,
  "Ġax": 5224,
  "Ġaid": 5225,
  "Ġage": 5226,
  "Ġaward": 5227,
  "oned": 5228,
  "onal": 5229,
  "onar": 5230,
  "onic": 5231,
  "onent": 5232,
  "onath": 5233,
  "onia": 5234,
  "erb": 5235,
  "ert": 5236,
  "eria": 5237,
  "erbert": 5238,
  "attern": 5239,
  "atoes": 5240,
  "reet": 5241,
  "reiter": 5242,
  "reement": 5243,
  "enn": 5244,
  "ening": 5245,
  "enry": 5246,
  "encing": 5247,
  "oring": 5248,
  "orates": 5249,
  "orator": 5250,
  "Ġsus": 5251,
  "Ġsil": 5252,
  "Ġsess": 5253,
  "Ġsonar": 5254,
  "edical": 5255,
  "inger": 5256,
  "ale": 5257,
  "alf": 5258,
  "alter": 5259,
  "algorithmic": 5260,
  "esign": 5261,
  "Ġcr": 5262,
  "Ġcat": 5263,
  "Ġcit": 5264,
  "Ġcro": 5265,
  "Ġcam": 5266,
  "Ġcell": 5267,
  "Ġcame": 5268,
  "Ġcry": 5269,
  "ioned": 5270,
  "ionism": 5271,
  "aring": 5272,
  "arity": 5273,
  "arable": 5274,
  "arant": 5275,
  "arwin": 5276,
  "Ġour": 5277,
  "Ġovers": 5278,
  "Ġold": 5279,
  "Ġomits": 5280,
  "iti": 5281,
  "itative": 5282,
  "itize": 5283,
  "itutions": 5284,
  "itude": 5285,
  "ison": 5286,
  "isations": 5287,
  "isely": 5288,
  "learn": 5289,
  "leag": 5290,
  "lead": 5291,
  "leted": 5292,
  "Ġinform": 5293,
  "Ġinsu": 5294,
  "Ġinferences": 5295,
  "Ġinstruct": 5296,
  "Ġinhib": 5297,
  "Ġinduction": 5298,
  "Ġput": 5299,
  "Ġpig": 5300,
  "Ġpython": 5301,
  "Ġpage": 5302,
  "Ġpens": 5303,
  "Ġport": 5304,
  "Ġpack": 5305,
  "Ġpost": 5306,
  "Ġpress": 5307,
  "Ġpne": 5308,
  "Ġpair": 5309,
  "Ġpuzz": 5310,
  "Ġpainting": 5311,
  "ico": 5312,
  "icon": 5313,
  "icol": 5314,
  "icial": 5315,
  "icated": 5316,
  "icrow": 5317,
  "icacy": 5318,
  "ano": 5319,
  "anad": 5320,
  "aneously": 5321,
  "Ġmut": 5322,
  "Ġmus": 5323,
  "Ġmim": 5324,
  "Ġmarg": 5325,
  "Ġmaster": 5326,
  "Ġmoves": 5327,
  "Ġmilitary": 5328,
  "Ġmicrow": 5329,
  "Ġanimal": 5330,
  "Ġbig": 5331,
  "Ġbund": 5332,
  "Ġbind": 5333,
  "Ġbread": 5334,
  "Ġbatch": 5335,
  "Ġbacks": 5336,
  "Ġbinary": 5337,
  "Ġbinding": 5338,
  "Ġbrac": 5339,
  "Ġdog": 5340,
  "Ġdict": 5341,
  "Ġdile": 5342,
  "Ġdrop": 5343,
  "Ġdying": 5344,
  "Ġfif": 5345,
  "Ġfell": 5346,
  "Ġflu": 5347,
  "Ġfriend": 5348,
  "Ġfuzzy": 5349,
  "rovers": 5350,
  "Ġwor": 5351,
  "Ġwom": 5352,
  "Ġwarn": 5353,
  "Ġwear": 5354,
  "Ġwant": 5355,
  "Ġwaves": 5356,
  "Ġtold": 5357,
  "Ġtoday": 5358,
  "Ġtotal": 5359,
  "asons": 5360,
  "chem": 5361,
  "entang": 5362,
  "entiation": 5363,
  "elley": 5364,
  "elhart": 5365,
  "Ġnative": 5366,
  "Ġnode": 5367,
  "Ġnarrow": 5368,
  "Ġren": 5369,
  "Ġrein": 5370,
  "Ġrect": 5371,
  "Ġreve": 5372,
  "Ġrepe": 5373,
  "Ġrepos": 5374,
  "Ġreferences": 5375,
  "Ġreverse": 5376,
  "Ġreopen": 5377,
  "Ġrebound": 5378,
  "eting": 5379,
  "etch": 5380,
  "eties": 5381,
  "etime": 5382,
  "ctuation": 5383,
  "omic": 5384,
  "ompos": 5385,
  "omNet": 5386,
  "omatic": 5387,
  "omsky": 5388,
  "utor": 5389,
  "uttered": 5390,
  "utonomous": 5391,
  "usc": 5392,
  "use": 5393,
  "usts": 5394,
  "Ġever": 5395,
  "Ġepigenetic": 5396,
  "Ġeyes": 5397,
  "Ġhom": 5398,
  "Ġhim": 5399,
  "Ġhere": 5400,
  "Ġhors": 5401,
  "Ġheld": 5402,
  "Ġhour": 5403,
  "Ġhiring": 5404,
  "Ġhalf": 5405,
  "Ġlie": 5406,
  "Ġlines": 5407,
  "Ġlives": 5408,
  "Ġlamb": 5409,
  "Ġlife": 5410,
  "imit": 5411,
  "imod": 5412,
  "image": 5413,
  "imated": 5414,
  "imals": 5415,
  "imited": 5416,
  "thing": 5417,
  "this": 5418,
  "thur": 5419,
  "through": 5420,
  "thesis": 5421,
  "rap": 5422,
  "raw": 5423,
  "race": 5424,
  "raight": 5425,
  "Ġleaves": 5426,
  "ceeds": 5427,
  "unsupervised": 5428,
  "unlike": 5429,
  "unobser": 5430,
  "ĠAT": 5431,
  "ĠAli": 5432,
  "ĠAfter": 5433,
  "ĠApr": 5434,
  "ĠAPI": 5435,
  "ĠAfric": 5436,
  "Ġprotection": 5437,
  "Ġproceeds": 5438,
  "urity": 5439,
  "urces": 5440,
  "urger": 5441,
  "ulo": 5442,
  "uler": 5443,
  "ulary": 5444,
  "ulators": 5445,
  "igan": 5446,
  "stim": 5447,
  "state": 5448,
  "stell": 5449,
  "start": 5450,
  "iform": 5451,
  "Ġdece": 5452,
  "Ġdeleted": 5453,
  "ilss": 5454,
  "ilhelm": 5455,
  "iliar": 5456,
  "erson": 5457,
  "Ġmax": 5458,
  "Ġmail": 5459,
  "ĠmacOS": 5460,
  "Ġcome": 5461,
  "Ġcoming": 5462,
  "Ġcomments": 5463,
  "Ġforb": 5464,
  "Ġfork": 5465,
  "Ġforce": 5466,
  "Ġglob": 5467,
  "Ġgaming": 5468,
  "emini": 5469,
  "ĠPren": 5470,
  "ĠPract": 5471,
  "ĠPrior": 5472,
  "ĠPackage": 5473,
  "Ġsumm": 5474,
  "Ġsummar": 5475,
  "Ġsuitable": 5476,
  "Ġsudden": 5477,
  "Ġconform": 5478,
  "Ġconven": 5479,
  "Ġexits": 5480,
  "Ġones": 5481,
  "Ġontology": 5482,
  "Ġalge": 5483,
  "Ġneoc": 5484,
  "Ġneither": 5485,
  "idation": 5486,
  "idiv": 5487,
  "idge": 5488,
  "idimensional": 5489,
  "abis": 5490,
  "abulary": 5491,
  "Ġstop": 5492,
  "Ġstere": 5493,
  "Ġstages": 5494,
  "Ġstake": 5495,
  "Ġstories": 5496,
  "Ġstraight": 5497,
  "Ġintu": 5498,
  "ami": 5499,
  "amond": 5500,
  "ĠII": 5501,
  "ĠIs": 5502,
  "ĠIsing": 5503,
  "ĠIDL": 5504,
  "ĠIEA": 5505,
  "ĠIvak": 5506,
  "Ġwhom": 5507,
  "agent": 5508,
  "agement": 5509,
  "Ġcompare": 5510,
  "Ġcompact": 5511,
  "Ġcompound": 5512,
  "Ġcompose": 5513,
  "Ġcompares": 5514,
  "Ġcomprises": 5515,
  "Ġcomparable": 5516,
  "Ġ28": 5517,
  "ĠThus": 5518,
  "ĠThree": 5519,
  "ĠThrough": 5520,
  "otion": 5521,
  "otst": 5522,
  "resent": 5523,
  "Ġvag": 5524,
  "pper": 5525,
  "ogic": 5526,
  "Ġ\"[": 5527,
  "umb": 5528,
  "umulate": 5529,
  "ummit": 5530,
  "umba": 5531,
  "umonia": 5532,
  "umelhart": 5533,
  "oses": 5534,
  "osion": 5535,
  "oshu": 5536,
  "Ġ2030": 5537,
  "istical": 5538,
  "istrib": 5539,
  "Ġmodify": 5540,
  "Ġmodulo": 5541,
  "Ġimag": 5542,
  "Ġimper": 5543,
  "mented": 5544,
  "ope": 5545,
  "perpar": 5546,
  "ivision": 5547,
  "ellent": 5548,
  "ĠCy": 5549,
  "ĠCent": 5550,
  "ĠCrit": 5551,
  "ĠClo": 5552,
  "ĠCPUs": 5553,
  "ĠCirc": 5554,
  "ĠCEO": 5555,
  "ĠCanad": 5556,
  "Ġunint": 5557,
  "Ġunpre": 5558,
  "Ġunne": 5559,
  "Ġunoff": 5560,
  "Ġunrec": 5561,
  "Ġunique": 5562,
  "Ġunsupported": 5563,
  "ford": 5564,
  "forced": 5565,
  "ĠSu": 5566,
  "ĠSy": 5567,
  "ĠSer": 5568,
  "ĠSpe": 5569,
  "ĠSear": 5570,
  "ĠSad": 5571,
  "ĠSlic": 5572,
  "ĠSub": 5573,
  "ĠSeveral": 5574,
  "ĠSRI": 5575,
  "ĠSignals": 5576,
  "ĠSummit": 5577,
  "quentially": 5578,
  "Ġran": 5579,
  "Ġruler": 5580,
  "erebr": 5581,
  "ĠMethod": 5582,
  "ĠMaster": 5583,
  "ĠMLP": 5584,
  "ĠMAT": 5585,
  "ĠMoore": 5586,
  "ĠInc": 5587,
  "ĠInform": 5588,
  "ĠInformation": 5589,
  "ĠTheory": 5590,
  "udi": 5591,
  "Ġresign": 5592,
  "Ġresidual": 5593,
  "Ġresolution": 5594,
  "Ġ12": 5595,
  "Ġ13": 5596,
  "Ġ1000": 5597,
  "Ġ125": 5598,
  "Ġarise": 5599,
  "Ġappe": 5600,
  "Ġappear": 5601,
  "format": 5602,
  "formal": 5603,
  "atedly": 5604,
  "Ġclimate": 5605,
  "ĠGra": 5606,
  "ĠGord": 5607,
  "ĠGran": 5608,
  "ĠGroup": 5609,
  "ĠGNo": 5610,
  "ĠGemini": 5611,
  "Ġtrains": 5612,
  "Ġtrainer": 5613,
  "anger": 5614,
  "esting": 5615,
  "estimated": 5616,
  "gorill": 5617,
  "ptoms": 5618,
  "assabis": 5619,
  "cessary": 5620,
  "ĠDay": 5621,
  "ĠDys": 5622,
  "ĠDick": 5623,
  "ĠDonal": 5624,
  "ĠRain": 5625,
  "ĠRule": 5626,
  "ĠRiver": 5627,
  "ĠRisk": 5628,
  "ĠRumelhart": 5629,
  "oustic": 5630,
  "izer": 5631,
  "izers": 5632,
  "izable": 5633,
  "izens": 5634,
  "anda": 5635,
  "andoned": 5636,
  "Ġnotes": 5637,
  "adversarial": 5638,
  "ichi": 5639,
  "Ġsystematic": 5640,
  "ocate": 5641,
  "ocabulary": 5642,
  "acher": 5643,
  "Ġrecent": 5644,
  "Ġrecently": 5645,
  "Ġrecidiv": 5646,
  "ulty": 5647,
  "ultaneously": 5648,
  "gram": 5649,
  "gramming": 5650,
  "Ġcomputed": 5651,
  "rian": 5652,
  "ictions": 5653,
  "ugg": 5654,
  "ugging": 5655,
  "Ġcontents": 5656,
  "Ġcontraction": 5657,
  "Ġcontexts": 5658,
  "Ġcontrovers": 5659,
  "ortex": 5660,
  "Ġadhere": 5661,
  "Ġadequ": 5662,
  "ardy": 5663,
  "under": 5664,
  "undancies": 5665,
  "lude": 5666,
  "Ġatomic": 5667,
  "Ġenem": 5668,
  "Ġenforced": 5669,
  "anti": 5670,
  "anting": 5671,
  "antic": 5672,
  "antly": 5673,
  "ĠField": 5674,
  "ĠFound": 5675,
  "ĠFeder": 5676,
  "ĠBing": 5677,
  "ĠBish": 5678,
  "ĠBeg": 5679,
  "ĠBoth": 5680,
  "ĠBefore": 5681,
  "ĠBecause": 5682,
  "ĠBrad": 5683,
  "Ġchief": 5684,
  "Ġcheaper": 5685,
  "ĠNow": 5686,
  "ĠNetwork": 5687,
  "ĠNational": 5688,
  "ĠNob": 5689,
  "ĠNok": 5690,
  "ĠNature": 5691,
  "ĠNuclear": 5692,
  "ĠNJEE": 5693,
  "ĠNils": 5694,
  "ĠNuance": 5695,
  "Ġperforms": 5696,
  "Ġpercent": 5697,
  "Ġpertur": 5698,
  "Ġtruly": 5699,
  "Ġmanual": 5700,
  "Ġmanually": 5701,
  "ognition": 5702,
  "acking": 5703,
  "ĠEl": 5704,
  "ĠEm": 5705,
  "ĠElect": 5706,
  "ĠEvalu": 5707,
  "ĠEven": 5708,
  "ĠEstim": 5709,
  "Ġclassic": 5710,
  "Ġclassifying": 5711,
  "Ġclassifies": 5712,
  "Ġ35": 5713,
  "Ġ37": 5714,
  "ĠHow": 5715,
  "ĠHere": 5716,
  "ĠHigh": 5717,
  "ĠHall": 5718,
  "ĠHaw": 5719,
  "ĠHoch": 5720,
  "ĠHaving": 5721,
  "ĠHerbert": 5722,
  "ĠHenry": 5723,
  "ĠHassabis": 5724,
  "ends": 5725,
  "arting": 5726,
  "artph": 5727,
  "Ġoutside": 5728,
  "actions": 5729,
  "Ġ2013": 5730,
  "Ġinterval": 5731,
  "Ġinternet": 5732,
  "Ġdecoding": 5733,
  "Ġdecimal": 5734,
  "Ġdecompos": 5735,
  "velopment": 5736,
  "ĠLu": 5737,
  "ĠLong": 5738,
  "ĠLisp": 5739,
  "ĠLarry": 5740,
  "Ġmethodology": 5741,
  "Ġdispar": 5742,
  "Ġdisapp": 5743,
  "Ġdisentang": 5744,
  "Ġstatically": 5745,
  "Ġdevelops": 5746,
  "Ġresearched": 5747,
  "ĠTech": 5748,
  "ĠTechn": 5749,
  "ĠTwo": 5750,
  "ĠTai": 5751,
  "ĠTraining": 5752,
  "Ġseen": 5753,
  "Ġsequentially": 5754,
  "Theory": 5755,
  "ĠUpper": 5756,
  "Ġaccept": 5757,
  "Ġacyclic": 5758,
  "Ġacoustic": 5759,
  "Ġprocessors": 5760,
  "Ġimposed": 5761,
  "Inductive": 5762,
  "lica": 5763,
  "Ġdespite": 5764,
  "Ġrecognizers": 5765,
  "liable": 5766,
  "ĠJeop": 5767,
  "ĠJoint": 5768,
  "ĠJIT": 5769,
  "ĠJournal": 5770,
  "ĠJonath": 5771,
  "Ġprede": 5772,
  "Ġpretraining": 5773,
  "Ġprepared": 5774,
  "apy": 5775,
  "aped": 5776,
  "apid": 5777,
  "aprogra": 5778,
  "apiro": 5779,
  "berg": 5780,
  "Ġobliv": 5781,
  "Ġvaried": 5782,
  "Ġvariation": 5783,
  "Ġvariant": 5784,
  "Ġvarieties": 5785,
  "sub": 5786,
  "outs": 5787,
  "ysics": 5788,
  "asters": 5789,
  "Ġevol": 5790,
  "Ġevasion": 5791,
  "Ġshare": 5792,
  "Ġsharing": 5793,
  "ustr": 5794,
  "Ġrepresentational": 5795,
  "ologically": 5796,
  "cedented": 5797,
  "ecurity": 5798,
  "Ġsetup": 5799,
  "Ġabove": 5800,
  "Ġabandoned": 5801,
  "ternatively": 5802,
  "Ġaging": 5803,
  "Ġoperational": 5804,
  "Ġemplo": 5805,
  "ĠWid": 5806,
  "ĠWork": 5807,
  "ĠWats": 5808,
  "ĠWalter": 5809,
  "ĠWilhelm": 5810,
  "Ġstrict": 5811,
  "Ġdoing": 5812,
  "phones": 5813,
  "ublished": 5814,
  "Ġtransition": 5815,
  "Ġtransforms": 5816,
  "Ġtransaction": 5817,
  "Ġtransmit": 5818,
  "Ġbootst": 5819,
  "Ġsoft": 5820,
  "Ġsources": 5821,
  "Ġplus": 5822,
  "Ġplans": 5823,
  "Ġplaus": 5824,
  "Ġmultidimensional": 5825,
  "ĠOn": 5826,
  "ĠOs": 5827,
  "ĠOver": 5828,
  "ĠOEC": 5829,
  "ĠOrgan": 5830,
  "Ġsigns": 5831,
  "Ġcommit": 5832,
  "Ġphones": 5833,
  "Ġrelies": 5834,
  "Ġrelational": 5835,
  "aker": 5836,
  "avour": 5837,
  "Ġsimulation": 5838,
  "Ġsimulations": 5839,
  "Ġsimulating": 5840,
  "Ġsimultaneously": 5841,
  "Ġparties": 5842,
  "egative": 5843,
  "Ġproduces": 5844,
  "Ġgeneralised": 5845,
  "Ġgeneralize": 5846,
  "Ġgeneralization": 5847,
  "Ġfirm": 5848,
  "Ġsubt": 5849,
  "Ġsubmitted": 5850,
  "Ġrole": 5851,
  "Ġrout": 5852,
  "Ġroot": 5853,
  "Ġrough": 5854,
  "Ġregions": 5855,
  "Ġregulate": 5856,
  "Ġnewly": 5857,
  "Ġapplicants": 5858,
  "Ġdiscern": 5859,
  "Ġdiscovers": 5860,
  "iquity": 5861,
  "Ġindepend": 5862,
  "Ġefficacy": 5863,
  "ceptrons": 5864,
  "Ġproven": 5865,
  "Ġprovably": 5866,
  "Ġunderstood": 5867,
  "posed": 5868,
  "Ġprogrammers": 5869,
  "Ġdiffering": 5870,
  "ucting": 5871,
  "uctions": 5872,
  "Ġcoal": 5873,
  "Ġcoined": 5874,
  "Ġcovari": 5875,
  "Ġmeant": 5876,
  "Ġmeeting": 5877,
  "Ġlayered": 5878,
  "Ġproblematic": 5879,
  "struction": 5880,
  "ifier": 5881,
  "oken": 5882,
  "pret": 5883,
  "precision": 5884,
  "pective": 5885,
  "Ġjournal": 5886,
  "Ġbackground": 5887,
  "Ġwherein": 5888,
  "Ġsupporting": 5889,
  "Ġthroughout": 5890,
  "Ġprint": 5891,
  "Ġprone": 5892,
  "Ġobjective": 5893,
  "ĠStan": 5894,
  "ĠStable": 5895,
  "ĠStyle": 5896,
  "ĠSteph": 5897,
  "ĠSteering": 5898,
  "ĠStreet": 5899,
  "ĠStarting": 5900,
  "Ġidentical": 5901,
  "Ġcolleag": 5902,
  "Ġexplosion": 5903,
  "Ġimproving": 5904,
  "ĠKa": 5905,
  "ĠKe": 5906,
  "ĠKur": 5907,
  "ĠKey": 5908,
  "Ġquick": 5909,
  "urrency": 5910,
  "ips": 5911,
  "versing": 5912,
  "Ġrad": 5913,
  "Ġraised": 5914,
  "Ġraising": 5915,
  "Ġconnectivity": 5916,
  "Ġattrib": 5917,
  "Ġmatter": 5918,
  "Ġoptimise": 5919,
  "Ġoptimizations": 5920,
  "PyPy": 5921,
  "Ġtraits": 5922,
  "Ġtraversing": 5923,
  "Ġambigu": 5924,
  "Ġrequest": 5925,
  "Ġformed": 5926,
  "ĠDeepDream": 5927,
  "ĠUnits": 5928,
  "ĠUnsupervised": 5929,
  "ĠUnix": 5930,
  "ĠUnlike": 5931,
  "see": 5932,
  "sey": 5933,
  "sequence": 5934,
  "serve": 5935,
  "Ġcreates": 5936,
  "Ġwellbe": 5937,
  "asoning": 5938,
  "Ġextra": 5939,
  "Ġextraction": 5940,
  "Ġextinction": 5941,
  "Ġintroduce": 5942,
  "Ġ1981": 5943,
  "Ġ1987": 5944,
  "vironment": 5945,
  "concept": 5946,
  "lishing": 5947,
  "ismo": 5948,
  "ibilities": 5949,
  "ported": 5950,
  "Ġblind": 5951,
  "Ġblacks": 5952,
  "Ġconcurrent": 5953,
  "Ġvaluable": 5954,
  "Ġsuccessor": 5955,
  "Ġsuccesses": 5956,
  "Ġdistill": 5957,
  "Ġfactory": 5958,
  "Ġnoise": 5959,
  "Ġnothing": 5960,
  "Ġequipped": 5961,
  "Ġinfix": 5962,
  "Ġhandled": 5963,
  "Ġhandling": 5964,
  "Ġbehaves": 5965,
  "Ġ1995": 5966,
  "Ġ1998": 5967,
  "ĠLeNet": 5968,
  "Ġdifferentiable": 5969,
  "Ġserver": 5970,
  "Ġservers": 5971,
  "Ġserving": 5972,
  "Ġfounder": 5973,
  "Ġreduces": 5974,
  "Ġproposal": 5975,
  "Ġpropositions": 5976,
  "Ġpropositional": 5977,
  "ĠProcess": 5978,
  "ĠProject": 5979,
  "ĠProbabilistic": 5980,
  "ĠProPub": 5981,
  "ĠProgramming": 5982,
  "Ġsyntact": 5983,
  "Ġdevelopmental": 5984,
  "Ġshowing": 5985,
  "teacher": 5986,
  "Ġcorpus": 5987,
  "Ġinstitutions": 5988,
  "Ġwrite": 5989,
  "Ġwritable": 5990,
  "Ġstructured": 5991,
  "Ġproviding": 5992,
  "2022": 5993,
  "neural": 5994,
  "nearest": 5995,
  "Ġtested": 5996,
  "oney": 5997,
  "Ġscene": 5998,
  "Ġscript": 5999,
  "Ġscreen": 6000,
  "Ġscope": 6001,
  "Ġconsideration": 6002,
  "Ġrealistic": 6003,
  "Ġelectro": 6004,
  "Ġelectorates": 6005,
  "Ġcontained": 6006,
  "1980": 6007,
  "bruary": 6008,
  "offend": 6009,
  "ĠVer": 6010,
  "ĠVari": 6011,
  "ĠVarious": 6012,
  "ĠVGG": 6013,
  "Ġpoor": 6014,
  "Ġ2003": 6015,
  "ĠIntel": 6016,
  "Ġcomputationally": 6017,
  "Ġadvice": 6018,
  "Ġobserving": 6019,
  "Ġcommonalities": 6020,
  "Ġvectors": 6021,
  "Ġsmartph": 6022,
  "Ġsurro": 6023,
  "Ġsurround": 6024,
  "Ġsurvive": 6025,
  "ĠChomsky": 6026,
  "Ġengines": 6027,
  "Ġidentifying": 6028,
  "Ġimprovement": 6029,
  "Ġimprovements": 6030,
  "Ġspecificity": 6031,
  "ilosophy": 6032,
  "Ġpopulations": 6033,
  "Ġmemories": 6034,
  "Ġexisted": 6035,
  "Ġ1962": 6036,
  "Ġ1965": 6037,
  "Ġ1966": 6038,
  "Ġ1967": 6039,
  "Ġ1969": 6040,
  "Ġdoesn": 6041,
  "Ġkeep": 6042,
  "Ġfinally": 6043,
  "ussed": 6044,
  "Ġresulted": 6045,
  "Ġanalytical": 6046,
  "Ġbelieved": 6047,
  "ront": 6048,
  "Ġcombat": 6049,
  "Ġnegation": 6050,
  "ĠConvolutional": 6051,
  "ĠConvention": 6052,
  "ĠConstell": 6053,
  "Ġplayers": 6054,
  "Ġintegrates": 6055,
  "Ġestimate": 6056,
  "Ġestimates": 6057,
  "aterials": 6058,
  "Ġsentient": 6059,
  "Ġpersuasion": 6060,
  "Ġperspective": 6061,
  "Ġposes": 6062,
  "Ġmislead": 6063,
  "Ġbeta": 6064,
  "Ġfaculty": 6065,
  "Ġhiding": 6066,
  "Ġlooks": 6067,
  "Ġloosely": 6068,
  "Ġlimits": 6069,
  "thought": 6070,
  "Ġfocused": 6071,
  "Ġtheoretically": 6072,
  "Ġreceiving": 6073,
  "Ġhelped": 6074,
  "Ġgene": 6075,
  "Ġspeedups": 6076,
  "Ġspecialised": 6077,
  "Ġcontinually": 6078,
  "Ġassociates": 6079,
  "Ġtransformer": 6080,
  "Ġinfluences": 6081,
  "Ġinfluencing": 6082,
  "Ġengineered": 6083,
  "Reasoning": 6084,
  "rank": 6085,
  "syco": 6086,
  "Ġdiamond": 6087,
  "Ġdynamics": 6088,
  "Ġdynamically": 6089,
  "Ġsuperintelligent": 6090,
  "Ġsuperior": 6091,
  "Ġsupermark": 6092,
  "ameter": 6093,
  "Ġruns": 6094,
  "Ġruntime": 6095,
  "Ġrandomly": 6096,
  "Ġrandomized": 6097,
  "Ġadds": 6098,
  "ĠNoam": 6099,
  "Ġphilosopher": 6100,
  "Ġphilosophers": 6101,
  "Ġphilosophical": 6102,
  "Ġactivities": 6103,
  "Ġcounting": 6104,
  "Ġpublicly": 6105,
  "2012": 6106,
  "2013": 6107,
  "2017": 6108,
  "2018": 6109,
  "All": 6110,
  "Neuromorphic": 6111,
  "Star": 6112,
  "State": 6113,
  "parts": 6114,
  "validation": 6115,
  "ventions": 6116,
  "Ġentity": 6117,
  "Ġentities": 6118,
  "Ġentered": 6119,
  "Ġcritic": 6120,
  "standing": 6121,
  "ĠPhilosopher": 6122,
  "Ġunconscious": 6123,
  "ĠExc": 6124,
  "ĠExper": 6125,
  "Ġinterpretable": 6126,
  "Ġcorrelation": 6127,
  "Ġcorrelate": 6128,
  "Ġinvesting": 6129,
  "Ġinvestment": 6130,
  "Ġautonomously": 6131,
  "Ġgovernance": 6132,
  "Ġsafe": 6133,
  "Ġowners": 6134,
  "Ġpassing": 6135,
  "Ġpasses": 6136,
  "Ġdriven": 6137,
  "Ġdriving": 6138,
  "Ġresponsible": 6139,
  "Ġresponsibility": 6140,
  "Ġresponsibilities": 6141,
  "Ġcontrols": 6142,
  "Ġ1974": 6143,
  "Ġ1979": 6144,
  "Ġassumption": 6145,
  "Ġmeanings": 6146,
  "ĠAlphaFold": 6147,
  "ĠAlphaZero": 6148,
  "Ġdepends": 6149,
  "Conference": 6150,
  "Conditional": 6151,
  "box": 6152,
  "books": 6153,
  "Ġ40": 6154,
  "Ġ800": 6155,
  "Ġtreat": 6156,
  "Ġcycles": 6157,
  "Ġinvolve": 6158,
  "Ġpresence": 6159,
  "Ġfails": 6160,
  "Ġconfusion": 6161,
  "Ġconstit": 6162,
  "Ġconstitute": 6163,
  "Ġiterable": 6164,
  "Ġiterators": 6165,
  "Ġiteratively": 6166,
  "Ġuniversally": 6167,
  "ĠReLU": 6168,
  "ĠLSTMs": 6169,
  "ĠTranslator": 6170,
  "Ġemployed": 6171,
  "Ġemploying": 6172,
  "Ġquestions": 6173,
  "Ġfactorisation": 6174,
  "Ġexecuting": 6175,
  "Another": 6176,
  "Ġ-,": 6177,
  "Ġ70": 6178,
  "Ġ71": 6179,
  "ĠXP": 6180,
  "Ġpolicing": 6181,
  "Ġpolicies": 6182,
  "Ġdelimit": 6183,
  "Ġwinner": 6184,
  "ĠAlexa": 6185,
  "Ġcollectively": 6186,
  "Ġimportantly": 6187,
  "Explainable": 6188,
  "Ġmarked": 6189,
  "Ġliterals": 6190,
  "Ġliterally": 6191,
  "Ġliterature": 6192,
  "ĠShun": 6193,
  "ĠShapiro": 6194,
  "Ġmanipulate": 6195,
  "Ġinteresting": 6196,
  "Ġdefining": 6197,
  "Ġextensions": 6198,
  "Ġextensible": 6199,
  "Ġcontinues": 6200,
  "Ġcontinuously": 6201,
  "gressive": 6202,
  "laration": 6203,
  "psos": 6204,
  "Ġthousand": 6205,
  "Ġcurly": 6206,
  "Ġcurated": 6207,
  "Ġcurios": 6208,
  "Ġpursue": 6209,
  "Ġmonit": 6210,
  "Ġmetaprogra": 6211,
  "Ġannually": 6212,
  "Ġantiquity": 6213,
  "Ġrevision": 6214,
  "Ġrevived": 6215,
  "Ġelement": 6216,
  "ĠArthur": 6217,
  "Ġprofound": 6218,
  "Ġmaximum": 6219,
  "Ġorganized": 6220,
  "ĠMonte": 6221,
  "ĠRecognition": 6222,
  "Ġfewer": 6223,
  "Ġinteracting": 6224,
  "Ġemotions": 6225,
  "Ġemotional": 6226,
  "Ġplanned": 6227,
  "Ġlikeli": 6228,
  "Ġmatching": 6229,
  "Ġbehavioural": 6230,
  "Ġbuilds": 6231,
  "Ġcharacteristic": 6232,
  "Probabilistic": 6233,
  "Proprietary": 6234,
  "Support": 6235,
  "feature": 6236,
  "ioinformatics": 6237,
  "knowledge": 6238,
  "written": 6239,
  "Ġensures": 6240,
  "Ġthink": 6241,
  "Ġcars": 6242,
  "Ġcarried": 6243,
  "Ġinside": 6244,
  "Ġinsights": 6245,
  "Ġpractice": 6246,
  "Ġdedicated": 6247,
  "Ġdeductions": 6248,
  "Ġdigit": 6249,
  "Ġfreely": 6250,
  "Ġeveryone": 6251,
  "Ġeconomists": 6252,
  "Ġbegun": 6253,
  "Ġnevertheless": 6254,
  "Ġcomplete": 6255,
  "Ġclaims": 6256,
  "Ġencode": 6257,
  "ĠNewell": 6258,
  "Ġseek": 6259,
  "Ġobtained": 6260,
  "Ġconsumed": 6261,
  "Ġincremental": 6262,
  "Ġincrementally": 6263,
  "Ġminimize": 6264,
  "Ġminimisation": 6265,
  "1990": 6266,
  "Ġlooked": 6267,
  "Ġhierarchical": 6268,
  "Ġarbitrarily": 6269,
  "EEE": 6270,
  "Recurrent": 6271,
  "Recommendation": 6272,
  "hnenko": 6273,
  "humanism": 6274,
  "weights": 6275,
  "ĠZen": 6276,
  "ĠZhang": 6277,
  "regularization": 6278,
  "Ġcauses": 6279,
  "Ġcrosses": 6280,
  "Ġopponent": 6281,
  "Ġpriority": 6282,
  "Ġprioritize": 6283,
  "icians": 6284,
  "Ġmale": 6285,
  "Ġbenefits": 6286,
  "Ġreplace": 6287,
  "Ġreplaced": 6288,
  "Ġreplacing": 6289,
  "Ġlatent": 6290,
  "Ġlatest": 6291,
  "Ġleverages": 6292,
  "Ġleveraging": 6293,
  "Ġgetting": 6294,
  "ĠPlatform": 6295,
  "ĠPerceptrons": 6296,
  "Ġsuggests": 6297,
  "Ġcomposition": 6298,
  "Ġcomprehensive": 6299,
  "Ġimmune": 6300,
  "Ġadjusts": 6301,
  "Ġprecisely": 6302,
  "Ġconsistent": 6303,
  "Ġtranspil": 6304,
  "Ġsubjectivity": 6305,
  "Ġregularisation": 6306,
  "Ġtrackers": 6307,
  "Ġestablishing": 6308,
  "Ġpolynomials": 6309,
  "Ġdominate": 6310,
  "Ġinvestigators": 6311,
  "Ġdrugs": 6312,
  "Ġconstraint": 6313,
  "Ġmarketing": 6314,
  "Ġbroader": 6315,
  "Ġstrengths": 6316,
  "CAP": 6317,
  "General": 6318,
  "Physical": 6319,
  "avec": 6320,
  "Ġ\\{\\": 6321,
  "organizing": 6322,
  "Ġinherent": 6323,
  "Ġpixel": 6324,
  "Ġmove": 6325,
  "Ġmassive": 6326,
  "Ġmassively": 6327,
  "Ġbenchmarks": 6328,
  "Ġderives": 6329,
  "Ġdenoising": 6330,
  "Ġdrawn": 6331,
  "Ġfractions": 6332,
  "Ġearlies": 6333,
  "Ġholds": 6334,
  "Ġholdout": 6335,
  "ĠAtari": 6336,
  "Ġdevice": 6337,
  "Ġgranting": 6338,
  "Ġguarant": 6339,
  "Ġguided": 6340,
  "Ġguidel": 6341,
  "Ġguidance": 6342,
  "emporary": 6343,
  "Ġsuffering": 6344,
  "Ġconverge": 6345,
  "Ġexponentiation": 6346,
  "ĠIDEs": 6347,
  "Ġvulnerable": 6348,
  "ograms": 6349,
  "Ġundetect": 6350,
  "Ġrationale": 6351,
  "ĠDemis": 6352,
  "ĠDempst": 6353,
  "Ġreconstructing": 6354,
  "Ġcheck": 6355,
  "Ġchecks": 6356,
  "Ġcheckers": 6357,
  "Ġmanager": 6358,
  "Ġmanagers": 6359,
  "Ġmanagement": 6360,
  "Ġconsequences": 6361,
  "Ġemerging": 6362,
  "Ġemerged": 6363,
  "Ġphotonics": 6364,
  "Ġindicate": 6365,
  "Ġindicating": 6366,
  "Ġindicators": 6367,
  "Ġindexes": 6368,
  "Ġwebsite": 6369,
  "ĠAllen": 6370,
  "Ġcollabor": 6371,
  "Ġupdate": 6372,
  "Ġbreakthrough": 6373,
  "ĠCAPs": 6374,
  "Ġutilizing": 6375,
  "Ġbranches": 6376,
  "Ġdiscipline": 6377,
  "Ġemphasizes": 6378,
  "Computing": 6379,
  "netics": 6380,
  "person": 6381,
  "Ġ**": 6382,
  "Ġ61": 6383,
  "Ġ<=": 6384,
  "inson": 6385,
  "Ġteams": 6386,
  "Ġsends": 6387,
  "Ġpoll": 6388,
  "Ġpolit": 6389,
  "Ġmorality": 6390,
  "Ġanswers": 6391,
  "Ġanswering": 6392,
  "Ġdimensions": 6393,
  "Ġfool": 6394,
  "ropy": 6395,
  "Ġtoxicology": 6396,
  "Ġredundancies": 6397,
  "Ġrestoration": 6398,
  "Ġreactor": 6399,
  "Ġreactions": 6400,
  "Ġreliable": 6401,
  "Ġreliably": 6402,
  "Ġhopes": 6403,
  "Ġprogressively": 6404,
  "Ġgains": 6405,
  "amentally": 6406,
  "Ġverification": 6407,
  "Ġverifiable": 6408,
  "Ġcandidates": 6409,
  "Ġunlabeled": 6410,
  "ĠSafety": 6411,
  "ĠSaudi": 6412,
  "ĠSoftware": 6413,
  "ĠMoreover": 6414,
  "ĠMulti": 6415,
  "Ġincorrect": 6416,
  "ĠRegulatory": 6417,
  "Ġrecorded": 6418,
  "Ġ1943": 6419,
  "Ġ1949": 6420,
  "Ġenabled": 6421,
  "Ġchemical": 6422,
  "ĠHuang": 6423,
  "Ġdecreases": 6424,
  "Ġdecrease": 6425,
  "Ġdisagree": 6426,
  "Ġdisagreed": 6427,
  "Ġappropriately": 6428,
  "Ġevacu": 6429,
  "Ġabstract": 6430,
  "Ġabstraction": 6431,
  "Ġaggregation": 6432,
  "Ġaggregated": 6433,
  "ĠWei": 6434,
  "ĠWeizen": 6435,
  "Ġsimplest": 6436,
  "Ġsubsequently": 6437,
  "Ġregarded": 6438,
  "Ġregardless": 6439,
  "Ġweapon": 6440,
  "Ġattackers": 6441,
  "Ġyields": 6442,
  "connectionism": 6443,
  "Ġhandwriting": 6444,
  "Ġseriously": 6445,
  "Ġcorresponding": 6446,
  "ĠAmerican": 6447,
  "Ġeliminated": 6448,
  "Ġhypotheses": 6449,
  "Ġimplicitly": 6450,
  "Ġadjusting": 6451,
  "Ġadjustable": 6452,
  "2009": 6453,
  "Adversarial": 6454,
  "Bias": 6455,
  "GANs": 6456,
  "Researchers": 6457,
  "baum": 6458,
  "uitka": 6459,
  "Ġessential": 6460,
  "Ġessentially": 6461,
  "Ġ//,": 6462,
  "Ġtendency": 6463,
  "onym": 6464,
  "Ġspectrogra": 6465,
  "Ġscaling": 6466,
  "Ġclean": 6467,
  "Ġclearly": 6468,
  "Ġcapturing": 6469,
  "Ġbrown": 6470,
  "Ġbrowser": 6471,
  "Ġwarfare": 6472,
  "Ġhosting": 6473,
  "Ġpropaganda": 6474,
  "Ġdebates": 6475,
  "Ġgorilla": 6476,
  "Ġgorillas": 6477,
  "Ġconvinced": 6478,
  "Ġconvincing": 6479,
  "Ġexpensive": 6480,
  "Ġexhibit": 6481,
  "Ġintrusion": 6482,
  "operation": 6483,
  "Ġunreliable": 6484,
  "ĠRespons": 6485,
  "Ġcontributed": 6486,
  "ĠFebruary": 6487,
  "Ġtricked": 6488,
  "Ġpredicts": 6489,
  "Ġevolutionary": 6490,
  "ĠWarren": 6491,
  "Ġanalyse": 6492,
  "Ġanalyses": 6493,
  "Ġtranslates": 6494,
  "Ġbounds": 6495,
  "Ġprimary": 6496,
  "Ġcollapse": 6497,
  "Ġexploit": 6498,
  "Ġdescription": 6499,
  "Ġextreme": 6500,
  "Ġextremely": 6501,
  "Ġminority": 6502,
  "Ġconcatenated": 6503,
  "Ġmedicine": 6504,
  "Ġbelongs": 6505,
  "Ġbelonging": 6506,
  "1986": 6507,
  "Ġadvancements": 6508,
  "Statistics": 6509,
  "Ġcybernetics": 6510,
  "Ġdestroy": 6511,
  "Ġremainder": 6512,
  "Ġpsychology": 6513,
  "Ġmaintaining": 6514,
  "ĠHebbian": 6515,
  "Ġparallelism": 6516,
  "ARPA": 6517,
  "Ethics": 6518,
  "Financial": 6519,
  "IPS": 6520,
  "Microsoft": 6521,
  "Performance": 6522,
  "Regression": 6523,
  "Simple": 6524,
  "SVMs": 6525,
  "malware": 6526,
  "machines": 6527,
  "number": 6528,
  "pilers": 6529,
  "Ġ_{": 6530,
  "ĠâĨĴ": 6531,
  "Ġillusion": 6532,
  "inatorial": 6533,
  "Ġtagging": 6534,
  "Ġaverage": 6535,
  "Ġslice": 6536,
  "arthy": 6537,
  "Ġpunctuation": 6538,
  "Ġmixture": 6539,
  "Ġmitigate": 6540,
  "Ġfamiliar": 6541,
  "Ġrepublished": 6542,
  "Ġrejected": 6543,
  "Ġreprodu": 6544,
  "Ġhyperpar": 6545,
  "Ġlazy": 6546,
  "Ġletters": 6547,
  "ĠArabia": 6548,
  "Ġdegree": 6549,
  "Ġgreatest": 6550,
  "ĠParkinson": 6551,
  "ĠPapert": 6552,
  "Ġsupervisory": 6553,
  "Ġsuperset": 6554,
  "Ġconjunction": 6555,
  "Ġconducted": 6556,
  "Ġalignment": 6557,
  "Ġneighbor": 6558,
  "Ġstreams": 6559,
  "Ġintractable": 6560,
  "Ġcompensate": 6561,
  "Ġimplies": 6562,
  "ĠCarlo": 6563,
  "ĠColab": 6564,
  "ĠCompany": 6565,
  "Ġunexpected": 6566,
  "ĠSiri": 6567,
  "ĠScient": 6568,
  "ĠSpecific": 6569,
  "Ġrigor": 6570,
  "ĠMoravec": 6571,
  "ĠMichigan": 6572,
  "Ġsymptoms": 6573,
  "Ġresolving": 6574,
  "Ġclickwork": 6575,
  "ĠRepresent": 6576,
  "Ġenhances": 6577,
  "ĠBengio": 6578,
  "Ġinterfaces": 6579,
  "Ġinternational": 6580,
  "ĠLLVM": 6581,
  "ĠLike": 6582,
  "ĠLaboratory": 6583,
  "ĠTurismo": 6584,
  "Ġsegmentation": 6585,
  "Ġimprecise": 6586,
  "Ġpreferably": 6587,
  "Ġempirical": 6588,
  "Ġdoubling": 6589,
  "ĠGoodfellow": 6590,
  "Ġdefeated": 6591,
  "Ġdiscriminative": 6592,
  "Ġcovered": 6593,
  "Ġcoordination": 6594,
  "Ġexperienced": 6595,
  "Ġpruning": 6596,
  "Ġversatile": 6597,
  "Ġattached": 6598,
  "Ġgraduates": 6599,
  "Ġdistinguished": 6600,
  "Ġcoroutines": 6601,
  "Ġinstaller": 6602,
  "Ġscruffies": 6603,
  "Ġadvantages": 6604,
  "Ġarguments": 6605,
  "combinatorial": 6606,
  "Ġdirected": 6607,
  "Ġcounterparts": 6608,
  "Ġdelayed": 6609,
  "ĠIndustrial": 6610,
  "Ġneurobiological": 6611,
  "Ġdiagnostics": 6612,
  "Ġsparsely": 6613,
  "Ġdraws": 6614,
  "Ġundesired": 6615,
  "Computationalism": 6616,
  "considered": 6617,
  "Ġmotivated": 6618,
  "Ġfundamental": 6619,
  "Ġincorporate": 6620,
  "Ġautoencoder": 6621,
  "Ġcorresponds": 6622,
  "Ġjudgments": 6623,
  "Ġcustomer": 6624,
  "Criticism": 6625,
  "Different": 6626,
  "Decision": 6627,
  "Enhancement": 6628,
  "Hidden": 6629,
  "Jupyter": 6630,
  "Limitations": 6631,
  "Local": 6632,
  "Mojo": 6633,
  "Symbolic": 6634,
  "SciPy": 6635,
  "awareness": 6636,
  "author": 6637,
  "critical": 6638,
  "driving": 6639,
  "detecting": 6640,
  "eomet": 6641,
  "electronic": 6642,
  "irable": 6643,
  "multi": 6644,
  "mathrm": 6645,
  "pinions": 6646,
  "interesting": 6647,
  "Ġawarded": 6648,
  "Ġsusp": 6649,
  "Ġsession": 6650,
  "Ġcitizens": 6651,
  "Ġcamer": 6652,
  "Ġoverseen": 6653,
  "Ġinsufficient": 6654,
  "Ġpigeons": 6655,
  "Ġpension": 6656,
  "Ġpackages": 6657,
  "Ġpneumonia": 6658,
  "Ġpairs": 6659,
  "Ġpuzzles": 6660,
  "Ġmimics": 6661,
  "Ġmargin": 6662,
  "Ġmicrowork": 6663,
  "Ġbinds": 6664,
  "Ġbreadth": 6665,
  "Ġbackslash": 6666,
  "Ġbrackets": 6667,
  "Ġdilemm": 6668,
  "Ġdropout": 6669,
  "Ġwomen": 6670,
  "Ġreveal": 6671,
  "Ġrepeatedly": 6672,
  "Ġrepository": 6673,
  "Ġhorses": 6674,
  "Ġhours": 6675,
  "Ġlambda": 6676,
  "imodal": 6677,
  "ĠApril": 6678,
  "ilsson": 6679,
  "Ġglobally": 6680,
  "ĠPrentice": 6681,
  "Ġsummarized": 6682,
  "Ġalgebra": 6683,
  "Ġstereotypes": 6684,
  "Ġstraightforward": 6685,
  "ĠIDLE": 6686,
  "ĠIvakhnenko": 6687,
  "Ġcompounds": 6688,
  "oshua": 6689,
  "istributed": 6690,
  "ĠCritics": 6691,
  "ĠCloud": 6692,
  "Ġunintended": 6693,
  "Ġunprecedented": 6694,
  "Ġunnecessary": 6695,
  "Ġunofficial": 6696,
  "Ġunrecogn": 6697,
  "ĠSearle": 6698,
  "ĠSaddle": 6699,
  "ĠMethods": 6700,
  "ĠMATH": 6701,
  "ĠGordon": 6702,
  "ĠGNoME": 6703,
  "ĠDonald": 6704,
  "Ġadequate": 6705,
  "ĠFoundation": 6706,
  "ĠBishop": 6707,
  "ĠBeginning": 6708,
  "ĠNobel": 6709,
  "ĠNokia": 6710,
  "Ġperturbations": 6711,
  "ĠElectric": 6712,
  "ĠHawking": 6713,
  "ĠHochreiter": 6714,
  "Ġdisappoint": 6715,
  "ĠTaiwan": 6716,
  "ĠJeopardy": 6717,
  "ĠJonathan": 6718,
  "Ġemploys": 6719,
  "ĠWatson": 6720,
  "ĠOECD": 6721,
  "ĠOrganization": 6722,
  "ĠStephen": 6723,
  "Ġcolleagues": 6724,
  "Ġquickly": 6725,
  "Ġwellbeing": 6726,
  "ĠProPublica": 6727,
  "Ġsmartphone": 6728,
  "Ġsurrounding": 6729,
  "ĠConstellation": 6730,
  "Ġmisleading": 6731,
  "Ġcuriosity": 6732,
  "Ġmetaprogramming": 6733,
  "Ġlikelihood": 6734,
  "Ġearliest": 6735,
  "ĠDempster": 6736,
  "ĠWeizenbaum": 6737,
  "Ġhyperparameter": 6738
}